{
  "pattern": "'(?:[sdmt]|ll|ve|re)| ?[a-zA-Z]+| ?[0-9]+| ?[^\\sA-Za-z0-9]+|\\s+(?!\\S)|\\s+",
  "num_merges": 1000,
  "merges": [
    [
      " ",
      "t"
    ],
    [
      " ",
      "a"
    ],
    [
      "h",
      "e"
    ],
    [
      "i",
      "n"
    ],
    [
      "r",
      "e"
    ],
    [
      " t",
      "he"
    ],
    [
      "o",
      "n"
    ],
    [
      "e",
      "r"
    ],
    [
      " ",
      "o"
    ],
    [
      "a",
      "t"
    ],
    [
      " ",
      "s"
    ],
    [
      "e",
      "n"
    ],
    [
      " ",
      "c"
    ],
    [
      " ",
      "w"
    ],
    [
      "e",
      "s"
    ],
    [
      "i",
      "s"
    ],
    [
      "n",
      "d"
    ],
    [
      "i",
      "t"
    ],
    [
      "o",
      "r"
    ],
    [
      " ",
      "p"
    ],
    [
      "a",
      "l"
    ],
    [
      "e",
      "d"
    ],
    [
      " ",
      "b"
    ],
    [
      "a",
      "n"
    ],
    [
      " o",
      "f"
    ],
    [
      " ",
      "f"
    ],
    [
      "in",
      "g"
    ],
    [
      " ",
      "in"
    ],
    [
      "a",
      "r"
    ],
    [
      "o",
      "u"
    ],
    [
      " ",
      "m"
    ],
    [
      " a",
      "nd"
    ],
    [
      " t",
      "o"
    ],
    [
      "i",
      "c"
    ],
    [
      " ",
      "d"
    ],
    [
      "i",
      "on"
    ],
    [
      "l",
      "e"
    ],
    [
      "r",
      "o"
    ],
    [
      "a",
      "s"
    ],
    [
      " ",
      "h"
    ],
    [
      " t",
      "h"
    ],
    [
      "en",
      "t"
    ],
    [
      "c",
      "t"
    ],
    [
      " ",
      "e"
    ],
    [
      "i",
      "l"
    ],
    [
      " ",
      "re"
    ],
    [
      "o",
      "m"
    ],
    [
      "v",
      "e"
    ],
    [
      " ",
      "l"
    ],
    [
      "s",
      "t"
    ],
    [
      " ",
      "n"
    ],
    [
      "l",
      "y"
    ],
    [
      " b",
      "e"
    ],
    [
      " ",
      "is"
    ],
    [
      " ",
      "T"
    ],
    [
      "s",
      "e"
    ],
    [
      "o",
      "l"
    ],
    [
      " ",
      "g"
    ],
    [
      "at",
      "ion"
    ],
    [
      "i",
      "m"
    ],
    [
      "i",
      "d"
    ],
    [
      "e",
      "t"
    ],
    [
      "u",
      "t"
    ],
    [
      "u",
      "r"
    ],
    [
      "c",
      "e"
    ],
    [
      "o",
      "t"
    ],
    [
      "r",
      "a"
    ],
    [
      "o",
      "w"
    ],
    [
      "c",
      "h"
    ],
    [
      " ",
      "A"
    ],
    [
      " f",
      "or"
    ],
    [
      "i",
      "g"
    ],
    [
      " ",
      "S"
    ],
    [
      " th",
      "at"
    ],
    [
      " ",
      "u"
    ],
    [
      " ",
      "on"
    ],
    [
      " s",
      "t"
    ],
    [
      "v",
      "er"
    ],
    [
      " ",
      "C"
    ],
    [
      " ",
      "I"
    ],
    [
      "i",
      "r"
    ],
    [
      " ",
      "y"
    ],
    [
      "u",
      "l"
    ],
    [
      "a",
      "y"
    ],
    [
      "a",
      "m"
    ],
    [
      " a",
      "s"
    ],
    [
      "it",
      "h"
    ],
    [
      "e",
      "l"
    ],
    [
      "a",
      "d"
    ],
    [
      "he",
      "r"
    ],
    [
      " p",
      "ro"
    ],
    [
      " a",
      "re"
    ],
    [
      " c",
      "on"
    ],
    [
      " a",
      "n"
    ],
    [
      " w",
      "ith"
    ],
    [
      " w",
      "h"
    ],
    [
      "i",
      "f"
    ],
    [
      " ",
      "it"
    ],
    [
      " o",
      "r"
    ],
    [
      " a",
      "l"
    ],
    [
      " y",
      "ou"
    ],
    [
      "t",
      "er"
    ],
    [
      "o",
      "d"
    ],
    [
      " ",
      "M"
    ],
    [
      " ",
      "("
    ],
    [
      " T",
      "he"
    ],
    [
      "m",
      "ent"
    ],
    [
      "g",
      "e"
    ],
    [
      " ",
      "P"
    ],
    [
      " ",
      "1"
    ],
    [
      "t",
      "h"
    ],
    [
      "at",
      "e"
    ],
    [
      "o",
      "p"
    ],
    [
      "is",
      "t"
    ],
    [
      "er",
      "s"
    ],
    [
      " d",
      "e"
    ],
    [
      "i",
      "es"
    ],
    [
      "a",
      "b"
    ],
    [
      "il",
      "l"
    ],
    [
      " ",
      "he"
    ],
    [
      "es",
      "s"
    ],
    [
      " ",
      "B"
    ],
    [
      " e",
      "x"
    ],
    [
      "u",
      "s"
    ],
    [
      " w",
      "e"
    ],
    [
      "e",
      "ct"
    ],
    [
      "o",
      "re"
    ],
    [
      " s",
      "u"
    ],
    [
      " c",
      "om"
    ],
    [
      "it",
      "y"
    ],
    [
      "es",
      "t"
    ],
    [
      "i",
      "ve"
    ],
    [
      "re",
      "s"
    ],
    [
      " h",
      "a"
    ],
    [
      "a",
      "c"
    ],
    [
      "ro",
      "m"
    ],
    [
      "l",
      "d"
    ],
    [
      " ",
      "H"
    ],
    [
      "o",
      "s"
    ],
    [
      "u",
      "m"
    ],
    [
      " ",
      "v"
    ],
    [
      "k",
      "e"
    ],
    [
      " b",
      "y"
    ],
    [
      "e",
      "m"
    ],
    [
      "an",
      "t"
    ],
    [
      "i",
      "v"
    ],
    [
      "q",
      "u"
    ],
    [
      "a",
      "in"
    ],
    [
      " a",
      "t"
    ],
    [
      "n",
      "t"
    ],
    [
      " ",
      "W"
    ],
    [
      "p",
      "p"
    ],
    [
      " w",
      "as"
    ],
    [
      " ",
      "D"
    ],
    [
      "ig",
      "h"
    ],
    [
      "u",
      "d"
    ],
    [
      " ",
      "E"
    ],
    [
      " f",
      "rom"
    ],
    [
      " c",
      "an"
    ],
    [
      "a",
      "nd"
    ],
    [
      "o",
      "c"
    ],
    [
      " c",
      "h"
    ],
    [
      " ",
      "r"
    ],
    [
      " ",
      "R"
    ],
    [
      "or",
      "t"
    ],
    [
      " n",
      "e"
    ],
    [
      " ",
      "F"
    ],
    [
      " s",
      "e"
    ],
    [
      "i",
      "al"
    ],
    [
      " ",
      "2"
    ],
    [
      "u",
      "re"
    ],
    [
      " n",
      "ot"
    ],
    [
      "u",
      "n"
    ],
    [
      "ar",
      "t"
    ],
    [
      " ",
      "N"
    ],
    [
      " ",
      "le"
    ],
    [
      "ic",
      "al"
    ],
    [
      " ",
      "G"
    ],
    [
      " ha",
      "ve"
    ],
    [
      "r",
      "i"
    ],
    [
      " ",
      "L"
    ],
    [
      " s",
      "h"
    ],
    [
      "o",
      "g"
    ],
    [
      " ",
      "en"
    ],
    [
      " th",
      "is"
    ],
    [
      " s",
      "p"
    ],
    [
      "0",
      "0"
    ],
    [
      "p",
      "t"
    ],
    [
      "igh",
      "t"
    ],
    [
      "r",
      "ou"
    ],
    [
      " a",
      "b"
    ],
    [
      "re",
      "d"
    ],
    [
      "ic",
      "h"
    ],
    [
      "al",
      "l"
    ],
    [
      " w",
      "or"
    ],
    [
      "t",
      "her"
    ],
    [
      "ou",
      "ld"
    ],
    [
      "T",
      "he"
    ],
    [
      "g",
      "h"
    ],
    [
      "ion",
      "s"
    ],
    [
      "ou",
      "r"
    ],
    [
      "om",
      "e"
    ],
    [
      "o",
      "st"
    ],
    [
      "d",
      "u"
    ],
    [
      "at",
      "ed"
    ],
    [
      " ",
      "im"
    ],
    [
      " u",
      "s"
    ],
    [
      "in",
      "e"
    ],
    [
      "p",
      "er"
    ],
    [
      "ou",
      "t"
    ],
    [
      "ar",
      "d"
    ],
    [
      " p",
      "l"
    ],
    [
      "a",
      "g"
    ],
    [
      " the",
      "ir"
    ],
    [
      "id",
      "e"
    ],
    [
      "el",
      "l"
    ],
    [
      "f",
      "f"
    ],
    [
      "a",
      "ct"
    ],
    [
      "an",
      "s"
    ],
    [
      " ",
      "O"
    ],
    [
      " in",
      "t"
    ],
    [
      "as",
      "t"
    ],
    [
      "p",
      "l"
    ],
    [
      "e",
      "ar"
    ],
    [
      "a",
      "ge"
    ],
    [
      "u",
      "st"
    ],
    [
      " ",
      "J"
    ],
    [
      " wh",
      "ich"
    ],
    [
      "a",
      "k"
    ],
    [
      " ",
      "k"
    ],
    [
      "ou",
      "s"
    ],
    [
      " w",
      "he"
    ],
    [
      "e",
      "c"
    ],
    [
      " the",
      "y"
    ],
    [
      " ",
      "U"
    ],
    [
      "i",
      "z"
    ],
    [
      " you",
      "r"
    ],
    [
      " al",
      "l"
    ],
    [
      "o",
      "od"
    ],
    [
      " con",
      "t"
    ],
    [
      " I",
      "n"
    ],
    [
      " a",
      "d"
    ],
    [
      " in",
      "c"
    ],
    [
      "ul",
      "t"
    ],
    [
      "i",
      "b"
    ],
    [
      " w",
      "ill"
    ],
    [
      "c",
      "c"
    ],
    [
      "en",
      "d"
    ],
    [
      "r",
      "u"
    ],
    [
      "a",
      "p"
    ],
    [
      " d",
      "is"
    ],
    [
      " m",
      "ore"
    ],
    [
      "i",
      "a"
    ],
    [
      "on",
      "g"
    ],
    [
      " com",
      "p"
    ],
    [
      "i",
      "p"
    ],
    [
      "ation",
      "s"
    ],
    [
      "e",
      "w"
    ],
    [
      " re",
      "s"
    ],
    [
      " h",
      "as"
    ],
    [
      "ve",
      "l"
    ],
    [
      "e",
      "re"
    ],
    [
      "s",
      "o"
    ],
    [
      "or",
      "m"
    ],
    [
      "ar",
      "y"
    ],
    [
      " d",
      "o"
    ],
    [
      "at",
      "er"
    ],
    [
      " T",
      "h"
    ],
    [
      " o",
      "ther"
    ],
    [
      "il",
      "d"
    ],
    [
      " c",
      "l"
    ],
    [
      " we",
      "re"
    ],
    [
      "a",
      "re"
    ],
    [
      "ab",
      "le"
    ],
    [
      " m",
      "an"
    ],
    [
      "en",
      "ce"
    ],
    [
      " b",
      "ut"
    ],
    [
      "u",
      "al"
    ],
    [
      "k",
      "s"
    ],
    [
      "r",
      "y"
    ],
    [
      " ",
      "“"
    ],
    [
      " p",
      "er"
    ],
    [
      "in",
      "d"
    ],
    [
      "an",
      "ce"
    ],
    [
      " on",
      "e"
    ],
    [
      "e",
      "p"
    ],
    [
      "a",
      "ch"
    ],
    [
      " al",
      "so"
    ],
    [
      " t",
      "e"
    ],
    [
      " im",
      "p"
    ],
    [
      " m",
      "e"
    ],
    [
      "ent",
      "s"
    ],
    [
      "'",
      "s"
    ],
    [
      "o",
      "se"
    ],
    [
      "re",
      "at"
    ],
    [
      " 1",
      "9"
    ],
    [
      "ig",
      "n"
    ],
    [
      "a",
      "ke"
    ],
    [
      "as",
      "s"
    ],
    [
      "res",
      "s"
    ],
    [
      "as",
      "e"
    ],
    [
      "it",
      "ion"
    ],
    [
      " ",
      "j"
    ],
    [
      "a",
      "u"
    ],
    [
      "a",
      "v"
    ],
    [
      " s",
      "o"
    ],
    [
      "ct",
      "ion"
    ],
    [
      "ic",
      "e"
    ],
    [
      "b",
      "er"
    ],
    [
      " o",
      "ut"
    ],
    [
      " u",
      "n"
    ],
    [
      "ver",
      "y"
    ],
    [
      " p",
      "art"
    ],
    [
      " a",
      "pp"
    ],
    [
      " a",
      "r"
    ],
    [
      "im",
      "e"
    ],
    [
      "is",
      "h"
    ],
    [
      "or",
      "d"
    ],
    [
      " ab",
      "out"
    ],
    [
      "on",
      "e"
    ],
    [
      " e",
      "v"
    ],
    [
      "en",
      "s"
    ],
    [
      "ou",
      "nt"
    ],
    [
      "or",
      "y"
    ],
    [
      "o",
      "k"
    ],
    [
      "a",
      "ce"
    ],
    [
      "am",
      "e"
    ],
    [
      " wh",
      "o"
    ],
    [
      "i",
      "re"
    ],
    [
      " st",
      "ud"
    ],
    [
      " S",
      "t"
    ],
    [
      ")",
      "."
    ],
    [
      " h",
      "is"
    ],
    [
      "ac",
      "k"
    ],
    [
      " in",
      "f"
    ],
    [
      "u",
      "b"
    ],
    [
      " p",
      "e"
    ],
    [
      " ",
      "K"
    ],
    [
      " s",
      "y"
    ],
    [
      "or",
      "s"
    ],
    [
      " s",
      "c"
    ],
    [
      " the",
      "m"
    ],
    [
      " com",
      "m"
    ],
    [
      "u",
      "e"
    ],
    [
      "it",
      "e"
    ],
    [
      "an",
      "g"
    ],
    [
      "i",
      "ke"
    ],
    [
      "re",
      "e"
    ],
    [
      "n",
      "ow"
    ],
    [
      "c",
      "es"
    ],
    [
      "ou",
      "nd"
    ],
    [
      "l",
      "ow"
    ],
    [
      " ",
      "\""
    ],
    [
      " I",
      "t"
    ],
    [
      " u",
      "p"
    ],
    [
      " be",
      "c"
    ],
    [
      "ol",
      "og"
    ],
    [
      " p",
      "re"
    ],
    [
      "i",
      "le"
    ],
    [
      " th",
      "an"
    ],
    [
      " m",
      "ay"
    ],
    [
      "r",
      "ic"
    ],
    [
      " ",
      "qu"
    ],
    [
      "i",
      "e"
    ],
    [
      " C",
      "h"
    ],
    [
      " s",
      "ome"
    ],
    [
      "if",
      "f"
    ],
    [
      "i",
      "an"
    ],
    [
      " y",
      "ear"
    ],
    [
      " re",
      "c"
    ],
    [
      "op",
      "le"
    ],
    [
      " be",
      "en"
    ],
    [
      "at",
      "es"
    ],
    [
      "ay",
      "s"
    ],
    [
      "a",
      "il"
    ],
    [
      " the",
      "re"
    ],
    [
      "nd",
      "er"
    ],
    [
      " whe",
      "n"
    ],
    [
      "ing",
      "s"
    ],
    [
      "m",
      "er"
    ],
    [
      " a",
      "g"
    ],
    [
      "ou",
      "gh"
    ],
    [
      " it",
      "s"
    ],
    [
      " g",
      "o"
    ],
    [
      " 2",
      "0"
    ],
    [
      " int",
      "o"
    ],
    [
      "p",
      "h"
    ],
    [
      " t",
      "ime"
    ],
    [
      " t",
      "ra"
    ],
    [
      "re",
      "n"
    ],
    [
      "r",
      "it"
    ],
    [
      "ver",
      "s"
    ],
    [
      " wor",
      "k"
    ],
    [
      " ",
      "V"
    ],
    [
      "on",
      "s"
    ],
    [
      "t",
      "e"
    ],
    [
      " the",
      "se"
    ],
    [
      " Th",
      "is"
    ],
    [
      " o",
      "ver"
    ],
    [
      "er",
      "v"
    ],
    [
      " h",
      "ad"
    ],
    [
      "rou",
      "gh"
    ],
    [
      "l",
      "ud"
    ],
    [
      "al",
      "ly"
    ],
    [
      " pe",
      "ople"
    ],
    [
      " h",
      "ow"
    ],
    [
      " d",
      "iff"
    ],
    [
      "on",
      "d"
    ],
    [
      " t",
      "r"
    ],
    [
      "o",
      "ve"
    ],
    [
      " con",
      "s"
    ],
    [
      "m",
      "s"
    ],
    [
      "ter",
      "n"
    ],
    [
      "au",
      "se"
    ],
    [
      " ",
      "3"
    ],
    [
      " ",
      "ra"
    ],
    [
      " c",
      "ol"
    ],
    [
      " o",
      "ur"
    ],
    [
      "l",
      "l"
    ],
    [
      " u",
      "se"
    ],
    [
      " ",
      "ro"
    ],
    [
      "if",
      "ic"
    ],
    [
      " a",
      "ct"
    ],
    [
      " be",
      "t"
    ],
    [
      "w",
      "e"
    ],
    [
      "in",
      "t"
    ],
    [
      "l",
      "ic"
    ],
    [
      " m",
      "ost"
    ],
    [
      "ir",
      "st"
    ],
    [
      " k",
      "now"
    ],
    [
      "le",
      "ct"
    ],
    [
      "ment",
      "s"
    ],
    [
      " u",
      "nder"
    ],
    [
      " s",
      "a"
    ],
    [
      " d",
      "es"
    ],
    [
      "y",
      "s"
    ],
    [
      " w",
      "ould"
    ],
    [
      " l",
      "ike"
    ],
    [
      "it",
      "ies"
    ],
    [
      "n",
      "ing"
    ],
    [
      " b",
      "l"
    ],
    [
      "i",
      "ous"
    ],
    [
      "j",
      "ect"
    ],
    [
      "o",
      "ok"
    ],
    [
      "al",
      "th"
    ],
    [
      " a",
      "cc"
    ],
    [
      "ro",
      "w"
    ],
    [
      "l",
      "es"
    ],
    [
      " t",
      "w"
    ],
    [
      " ",
      "Y"
    ],
    [
      "st",
      "em"
    ],
    [
      "vel",
      "op"
    ],
    [
      " ne",
      "w"
    ],
    [
      " su",
      "ch"
    ],
    [
      " re",
      "l"
    ],
    [
      " ne",
      "ed"
    ],
    [
      " re",
      "p"
    ],
    [
      "ation",
      "al"
    ],
    [
      " ",
      "if"
    ],
    [
      "ff",
      "ect"
    ],
    [
      " inc",
      "lud"
    ],
    [
      "i",
      "ent"
    ],
    [
      " an",
      "y"
    ],
    [
      "o",
      "b"
    ],
    [
      " ch",
      "ild"
    ],
    [
      " g",
      "en"
    ],
    [
      "at",
      "ive"
    ],
    [
      "he",
      "d"
    ],
    [
      " he",
      "l"
    ],
    [
      "p",
      "le"
    ],
    [
      "ul",
      "ar"
    ],
    [
      "c",
      "ess"
    ],
    [
      " on",
      "ly"
    ],
    [
      " pro",
      "v"
    ],
    [
      " wh",
      "at"
    ],
    [
      " p",
      "r"
    ],
    [
      " n",
      "o"
    ],
    [
      " us",
      "ed"
    ],
    [
      "c",
      "ed"
    ],
    [
      " hel",
      "p"
    ],
    [
      ")",
      ","
    ],
    [
      "at",
      "ing"
    ],
    [
      "y",
      "p"
    ],
    [
      " p",
      "h"
    ],
    [
      " pro",
      "du"
    ],
    [
      "o",
      "v"
    ],
    [
      " U",
      "n"
    ],
    [
      " man",
      "y"
    ],
    [
      " f",
      "irst"
    ],
    [
      " th",
      "rough"
    ],
    [
      "o",
      "ol"
    ],
    [
      " of",
      "f"
    ],
    [
      " in",
      "d"
    ],
    [
      " a",
      "m"
    ],
    [
      "i",
      "et"
    ],
    [
      " de",
      "velop"
    ],
    [
      "os",
      "s"
    ],
    [
      "f",
      "ter"
    ],
    [
      "u",
      "c"
    ],
    [
      " sp",
      "ec"
    ],
    [
      "er",
      "m"
    ],
    [
      " f",
      "e"
    ],
    [
      "is",
      "e"
    ],
    [
      " re",
      "g"
    ],
    [
      " p",
      "o"
    ],
    [
      "ar",
      "k"
    ],
    [
      "rou",
      "nd"
    ],
    [
      "at",
      "h"
    ],
    [
      " e",
      "m"
    ],
    [
      "ic",
      "s"
    ],
    [
      " a",
      "c"
    ],
    [
      "ri",
      "b"
    ],
    [
      "ur",
      "ing"
    ],
    [
      "t",
      "s"
    ],
    [
      " tw",
      "o"
    ],
    [
      "n",
      "e"
    ],
    [
      " ex",
      "p"
    ],
    [
      " sy",
      "stem"
    ],
    [
      "f",
      "ul"
    ],
    [
      "in",
      "k"
    ],
    [
      "he",
      "n"
    ],
    [
      "is",
      "s"
    ],
    [
      "ol",
      "d"
    ],
    [
      "i",
      "ed"
    ],
    [
      " o",
      "b"
    ],
    [
      "et",
      "h"
    ],
    [
      "il",
      "ity"
    ],
    [
      " diff",
      "ere"
    ],
    [
      "ot",
      "h"
    ],
    [
      " de",
      "c"
    ],
    [
      " at",
      "t"
    ],
    [
      " as",
      "s"
    ],
    [
      "ib",
      "le"
    ],
    [
      "as",
      "ed"
    ],
    [
      " s",
      "ur"
    ],
    [
      "al",
      "s"
    ],
    [
      "ro",
      "p"
    ],
    [
      " ad",
      "d"
    ],
    [
      "er",
      "t"
    ],
    [
      " ",
      "–"
    ],
    [
      "t",
      "en"
    ],
    [
      " 20",
      "1"
    ],
    [
      " ",
      "-"
    ],
    [
      "an",
      "ge"
    ],
    [
      "if",
      "e"
    ],
    [
      " H",
      "e"
    ],
    [
      "n",
      "g"
    ],
    [
      "ar",
      "ch"
    ],
    [
      " sh",
      "ould"
    ],
    [
      "a",
      "w"
    ],
    [
      "I",
      "n"
    ],
    [
      " su",
      "pp"
    ],
    [
      "f",
      "ore"
    ],
    [
      "ow",
      "er"
    ],
    [
      " 2",
      "00"
    ],
    [
      " w",
      "ell"
    ],
    [
      "u",
      "res"
    ],
    [
      "we",
      "en"
    ],
    [
      "ra",
      "m"
    ],
    [
      " f",
      "l"
    ],
    [
      " year",
      "s"
    ],
    [
      " re",
      "m"
    ],
    [
      "b",
      "le"
    ],
    [
      "ra",
      "ct"
    ],
    [
      " in",
      "v"
    ],
    [
      "se",
      "l"
    ],
    [
      "ad",
      "e"
    ],
    [
      "ow",
      "n"
    ],
    [
      " c",
      "o"
    ],
    [
      " w",
      "ater"
    ],
    [
      " ",
      "4"
    ],
    [
      " su",
      "b"
    ],
    [
      "it",
      "s"
    ],
    [
      "ut",
      "ion"
    ],
    [
      "g",
      "an"
    ],
    [
      " c",
      "ould"
    ],
    [
      " bet",
      "ween"
    ],
    [
      " s",
      "m"
    ],
    [
      " whe",
      "re"
    ],
    [
      "c",
      "y"
    ],
    [
      "he",
      "s"
    ],
    [
      " h",
      "igh"
    ],
    [
      " he",
      "alth"
    ],
    [
      " p",
      "res"
    ],
    [
      "il",
      "y"
    ],
    [
      "w",
      "n"
    ],
    [
      "ic",
      "k"
    ],
    [
      " tr",
      "ans"
    ],
    [
      " ",
      "5"
    ],
    [
      "u",
      "ch"
    ],
    [
      " m",
      "ake"
    ],
    [
      " e",
      "ar"
    ],
    [
      "id",
      "ent"
    ],
    [
      "e",
      "ver"
    ],
    [
      "l",
      "and"
    ],
    [
      " g",
      "et"
    ],
    [
      " A",
      "s"
    ],
    [
      " b",
      "u"
    ],
    [
      "x",
      "t"
    ],
    [
      " p",
      "ers"
    ],
    [
      "f",
      "orm"
    ],
    [
      "ant",
      "s"
    ],
    [
      "it",
      "ed"
    ],
    [
      " ",
      "her"
    ],
    [
      " re",
      "se"
    ],
    [
      " in",
      "ter"
    ],
    [
      " imp",
      "ort"
    ],
    [
      "olog",
      "y"
    ],
    [
      "t",
      "ing"
    ],
    [
      "ch",
      "n"
    ],
    [
      "i",
      "vers"
    ],
    [
      " p",
      "ol"
    ],
    [
      " n",
      "um"
    ],
    [
      "ur",
      "al"
    ],
    [
      "i",
      "ence"
    ],
    [
      " m",
      "od"
    ],
    [
      " for",
      "m"
    ],
    [
      " dis",
      "c"
    ],
    [
      " in",
      "st"
    ],
    [
      "mer",
      "ic"
    ],
    [
      "ch",
      "ool"
    ],
    [
      " ex",
      "am"
    ],
    [
      "r",
      "on"
    ],
    [
      "in",
      "es"
    ],
    [
      "ist",
      "s"
    ],
    [
      " m",
      "ed"
    ],
    [
      " f",
      "ound"
    ],
    [
      " le",
      "ar"
    ],
    [
      "e",
      "f"
    ],
    [
      "at",
      "a"
    ],
    [
      "is",
      "m"
    ],
    [
      "ic",
      "t"
    ],
    [
      "ual",
      "ly"
    ],
    [
      "ur",
      "n"
    ],
    [
      "in",
      "s"
    ],
    [
      " l",
      "ar"
    ],
    [
      "o",
      "y"
    ],
    [
      " ",
      "very"
    ],
    [
      " l",
      "ong"
    ],
    [
      "h",
      "at"
    ],
    [
      " c",
      "ent"
    ],
    [
      " a",
      "fter"
    ],
    [
      " the",
      "n"
    ],
    [
      " inf",
      "orm"
    ],
    [
      " ev",
      "en"
    ],
    [
      " bec",
      "ause"
    ],
    [
      "g",
      "y"
    ],
    [
      " differe",
      "nt"
    ],
    [
      " wor",
      "ld"
    ],
    [
      " inc",
      "re"
    ],
    [
      " s",
      "im"
    ],
    [
      " ex",
      "per"
    ],
    [
      " j",
      "ust"
    ],
    [
      " e",
      "ffect"
    ],
    [
      "f",
      "t"
    ],
    [
      " h",
      "um"
    ],
    [
      "ot",
      "her"
    ],
    [
      "ce",
      "pt"
    ],
    [
      " c",
      "ount"
    ],
    [
      " w",
      "ay"
    ],
    [
      "at",
      "ure"
    ],
    [
      " d",
      "et"
    ],
    [
      "n",
      "ess"
    ],
    [
      " ",
      "ed"
    ],
    [
      " 1",
      "8"
    ],
    [
      " c",
      "ar"
    ],
    [
      "ical",
      "ly"
    ],
    [
      "g",
      "et"
    ],
    [
      " t",
      "yp"
    ],
    [
      " se",
      "e"
    ],
    [
      "ak",
      "ing"
    ],
    [
      " re",
      "f"
    ],
    [
      " f",
      "ol"
    ],
    [
      " A",
      "meric"
    ],
    [
      "v",
      "ent"
    ],
    [
      " th",
      "ose"
    ],
    [
      " p",
      "ub"
    ],
    [
      " res",
      "p"
    ],
    [
      "iv",
      "es"
    ],
    [
      " ",
      "ke"
    ],
    [
      " v",
      "ar"
    ],
    [
      "c",
      "k"
    ],
    [
      " c",
      "all"
    ],
    [
      "c",
      "er"
    ],
    [
      " gen",
      "er"
    ],
    [
      " s",
      "ign"
    ],
    [
      "or",
      "k"
    ],
    [
      " s",
      "oc"
    ],
    [
      " se",
      "c"
    ],
    [
      "c",
      "on"
    ],
    [
      "i",
      "ew"
    ],
    [
      " pro",
      "g"
    ],
    [
      "t",
      "le"
    ],
    [
      " e",
      "very"
    ],
    [
      "om",
      "m"
    ],
    [
      " child",
      "ren"
    ],
    [
      " ex",
      "t"
    ],
    [
      " l",
      "oc"
    ],
    [
      "u",
      "es"
    ],
    [
      " sa",
      "id"
    ],
    [
      "p",
      "s"
    ],
    [
      "ar",
      "m"
    ],
    [
      ".",
      "”"
    ],
    [
      " be",
      "ing"
    ],
    [
      "d",
      "s"
    ],
    [
      "as",
      "es"
    ],
    [
      " pro",
      "cess"
    ],
    [
      " f",
      "act"
    ],
    [
      " e",
      "ach"
    ],
    [
      "ro",
      "s"
    ],
    [
      "l",
      "ed"
    ],
    [
      " s",
      "et"
    ],
    [
      "ru",
      "ct"
    ],
    [
      " part",
      "ic"
    ],
    [
      " p",
      "at"
    ],
    [
      " res",
      "ult"
    ],
    [
      "ver",
      "n"
    ],
    [
      " c",
      "a"
    ],
    [
      " l",
      "ife"
    ],
    [
      "v",
      "ed"
    ],
    [
      " import",
      "ant"
    ],
    [
      " m",
      "on"
    ],
    [
      "ir",
      "on"
    ],
    [
      " g",
      "ra"
    ],
    [
      " f",
      "am"
    ],
    [
      "T",
      "h"
    ],
    [
      "ag",
      "es"
    ],
    [
      " d",
      "ist"
    ],
    [
      " A",
      "l"
    ],
    [
      " re",
      "qu"
    ],
    [
      " m",
      "uch"
    ],
    [
      " inform",
      "ation"
    ],
    [
      " te",
      "chn"
    ],
    [
      " m",
      "y"
    ],
    [
      "at",
      "her"
    ],
    [
      " c",
      "re"
    ],
    [
      " s",
      "he"
    ],
    [
      "od",
      "y"
    ],
    [
      " de",
      "f"
    ],
    [
      "c",
      "ent"
    ],
    [
      " comm",
      "un"
    ],
    [
      " W",
      "e"
    ],
    [
      " d",
      "uring"
    ],
    [
      " o",
      "wn"
    ],
    [
      " ar",
      "t"
    ],
    [
      " fol",
      "low"
    ],
    [
      "w",
      "ard"
    ],
    [
      " P",
      "ro"
    ],
    [
      " de",
      "p"
    ],
    [
      " ",
      "ent"
    ],
    [
      "im",
      "es"
    ],
    [
      " re",
      "ad"
    ],
    [
      "iz",
      "ed"
    ],
    [
      " The",
      "y"
    ],
    [
      " f",
      "ood"
    ],
    [
      " s",
      "ame"
    ],
    [
      "i",
      "o"
    ],
    [
      " a",
      "ut"
    ],
    [
      ".",
      "."
    ],
    [
      "ic",
      "es"
    ],
    [
      " le",
      "vel"
    ],
    [
      " le",
      "ad"
    ],
    [
      " stud",
      "ents"
    ],
    [
      "g",
      "g"
    ],
    [
      " r",
      "ight"
    ],
    [
      " m",
      "ade"
    ],
    [
      "|",
      "|"
    ],
    [
      "ect",
      "ion"
    ],
    [
      "an",
      "y"
    ],
    [
      " do",
      "es"
    ],
    [
      " in",
      "s"
    ],
    [
      "h",
      "ip"
    ],
    [
      " R",
      "e"
    ],
    [
      " d",
      "ata"
    ],
    [
      " en",
      "d"
    ],
    [
      " ",
      "6"
    ],
    [
      " s",
      "k"
    ],
    [
      " c",
      "ur"
    ],
    [
      "iz",
      "e"
    ],
    [
      " stud",
      "y"
    ],
    [
      "t",
      "ed"
    ],
    [
      " f",
      "ind"
    ],
    [
      " g",
      "row"
    ],
    [
      " pers",
      "on"
    ],
    [
      " st",
      "r"
    ],
    [
      "u",
      "nd"
    ],
    [
      " m",
      "in"
    ],
    [
      " I",
      "f"
    ],
    [
      " pro",
      "ble"
    ],
    [
      " b",
      "oth"
    ],
    [
      " p",
      "op"
    ],
    [
      " b",
      "ack"
    ],
    [
      " g",
      "ood"
    ],
    [
      "t",
      "he"
    ],
    [
      " g",
      "rou"
    ],
    [
      " F",
      "or"
    ],
    [
      " A",
      "r"
    ],
    [
      " c",
      "he"
    ],
    [
      " a",
      "v"
    ],
    [
      " A",
      "n"
    ],
    [
      " be",
      "fore"
    ],
    [
      "ar",
      "s"
    ],
    [
      "al",
      "e"
    ],
    [
      "in",
      "al"
    ],
    [
      "2",
      "0"
    ],
    [
      " sh",
      "ow"
    ],
    [
      " ex",
      "pl"
    ],
    [
      "v",
      "iron"
    ],
    [
      " C",
      "on"
    ],
    [
      " sm",
      "all"
    ],
    [
      "ivers",
      "ity"
    ],
    [
      "in",
      "ce"
    ],
    [
      " us",
      "ing"
    ],
    [
      " h",
      "ist"
    ],
    [
      " s",
      "chool"
    ],
    [
      " ag",
      "ain"
    ],
    [
      " comp",
      "le"
    ],
    [
      " d",
      "i"
    ],
    [
      "t",
      "y"
    ],
    [
      "00",
      "0"
    ],
    [
      "ial",
      "ly"
    ],
    [
      " pro",
      "t"
    ],
    [
      " b",
      "o"
    ],
    [
      "al",
      "ity"
    ],
    [
      ".",
      ","
    ],
    [
      "om",
      "en"
    ],
    [
      "st",
      "and"
    ],
    [
      " m",
      "ain"
    ],
    [
      "i",
      "el"
    ],
    [
      "in",
      "ed"
    ],
    [
      "im",
      "ate"
    ],
    [
      "ro",
      "l"
    ],
    [
      "d",
      "er"
    ],
    [
      " c",
      "or"
    ],
    [
      "1",
      "9"
    ],
    [
      "n",
      "ce"
    ],
    [
      "re",
      "ad"
    ],
    [
      " g",
      "l"
    ],
    [
      " t",
      "est"
    ],
    [
      "a",
      "x"
    ],
    [
      " H",
      "ow"
    ],
    [
      " t",
      "reat"
    ],
    [
      "iv",
      "id"
    ],
    [
      " of",
      "ten"
    ],
    [
      " wh",
      "ile"
    ],
    [
      " st",
      "ate"
    ],
    [
      "is",
      "hed"
    ],
    [
      " v",
      "al"
    ],
    [
      " p",
      "oss"
    ],
    [
      " N",
      "ew"
    ],
    [
      " s",
      "ol"
    ],
    [
      " l",
      "ess"
    ],
    [
      "ire",
      "ct"
    ],
    [
      " l",
      "it"
    ],
    [
      "i",
      "x"
    ],
    [
      "ut",
      "e"
    ],
    [
      "o",
      "h"
    ],
    [
      " r",
      "is"
    ],
    [
      " d",
      "ay"
    ],
    [
      "r",
      "al"
    ],
    [
      " n",
      "ow"
    ],
    [
      " I",
      "nd"
    ],
    [
      "ur",
      "y"
    ],
    [
      "i",
      "en"
    ],
    [
      "r",
      "an"
    ],
    [
      "oc",
      "k"
    ],
    [
      " num",
      "ber"
    ],
    [
      "er",
      "gy"
    ],
    [
      " h",
      "im"
    ],
    [
      " dis",
      "e"
    ],
    [
      " s",
      "erv"
    ],
    [
      " t",
      "ake"
    ],
    [
      "ul",
      "ation"
    ],
    [
      " o",
      "cc"
    ],
    [
      " S",
      "p"
    ],
    [
      " prov",
      "id"
    ],
    [
      " p",
      "ower"
    ],
    [
      "ak",
      "es"
    ],
    [
      " hum",
      "an"
    ],
    [
      " c",
      "ell"
    ],
    [
      " v",
      "is"
    ],
    [
      " rese",
      "arch"
    ],
    [
      "i",
      "er"
    ],
    [
      "e",
      "x"
    ],
    [
      "iet",
      "y"
    ],
    [
      "e",
      "red"
    ],
    [
      " f",
      "un"
    ],
    [
      " ch",
      "ar"
    ],
    [
      "viron",
      "ment"
    ],
    [
      " m",
      "em"
    ],
    [
      " or",
      "gan"
    ],
    [
      " supp",
      "ort"
    ],
    [
      "d",
      "ition"
    ],
    [
      " th",
      "ree"
    ],
    [
      " act",
      "iv"
    ],
    [
      "iv",
      "ing"
    ],
    [
      " 1",
      "0"
    ],
    [
      " ",
      "est"
    ],
    [
      "u",
      "p"
    ],
    [
      " des",
      "ign"
    ],
    [
      " m",
      "ust"
    ],
    [
      " d",
      "own"
    ],
    [
      "ter",
      "s"
    ],
    [
      "v",
      "en"
    ],
    [
      " b",
      "ody"
    ],
    [
      "i",
      "qu"
    ],
    [
      "a",
      "ir"
    ],
    [
      "v",
      "es"
    ],
    [
      " a",
      "round"
    ],
    [
      "us",
      "s"
    ],
    [
      "c",
      "l"
    ],
    [
      " e",
      "lect"
    ],
    [
      " cl",
      "ass"
    ],
    [
      "it",
      "al"
    ],
    [
      "her",
      "s"
    ],
    [
      " S",
      "c"
    ],
    [
      " l",
      "ook"
    ],
    [
      " go",
      "vern"
    ],
    [
      " ha",
      "nd"
    ],
    [
      " l",
      "and"
    ],
    [
      " re",
      "du"
    ],
    [
      "a",
      "j"
    ],
    [
      " po",
      "int"
    ],
    [
      " d",
      "id"
    ],
    [
      " st",
      "art"
    ],
    [
      " comm",
      "on"
    ],
    [
      " be",
      "l"
    ],
    [
      "g",
      "er"
    ],
    [
      " g",
      "reat"
    ],
    [
      " ",
      "7"
    ],
    [
      "d",
      "ay"
    ],
    [
      " s",
      "er"
    ],
    [
      " con",
      "f"
    ],
    [
      " B",
      "ut"
    ],
    [
      "re",
      "nt"
    ],
    [
      "ou",
      "se"
    ],
    [
      " pl",
      "an"
    ],
    [
      "v",
      "ing"
    ],
    [
      "a",
      "h"
    ],
    [
      "ain",
      "s"
    ],
    [
      " cont",
      "in"
    ],
    [
      "a",
      "ve"
    ],
    [
      "sel",
      "f"
    ],
    [
      " lar",
      "ge"
    ],
    [
      " exam",
      "ple"
    ],
    [
      " re",
      "t"
    ],
    [
      " rep",
      "ort"
    ],
    [
      "Th",
      "is"
    ],
    [
      " I",
      "s"
    ],
    [
      "ros",
      "s"
    ],
    [
      " c",
      "le"
    ],
    [
      " includ",
      "ing"
    ],
    [
      " c",
      "our"
    ],
    [
      "it",
      "ions"
    ],
    [
      "g",
      "en"
    ],
    [
      "a",
      "red"
    ],
    [
      ",",
      "”"
    ],
    [
      " o",
      "p"
    ],
    [
      " th",
      "ough"
    ],
    [
      "c",
      "om"
    ],
    [
      " con",
      "st"
    ],
    [
      "i",
      "um"
    ],
    [
      "act",
      "er"
    ],
    [
      "r",
      "ing"
    ],
    [
      " ",
      "8"
    ],
    [
      " all",
      "ow"
    ],
    [
      "e",
      "e"
    ],
    [
      " call",
      "ed"
    ],
    [
      "n",
      "er"
    ],
    [
      " pub",
      "lic"
    ],
    [
      "ou",
      "th"
    ],
    [
      " c",
      "are"
    ],
    [
      "ul",
      "l"
    ],
    [
      "ion",
      "al"
    ],
    [
      "w",
      "ay"
    ],
    [
      "as",
      "h"
    ],
    [
      " m",
      "et"
    ],
    [
      " bu",
      "ild"
    ],
    [
      "e",
      "g"
    ],
    [
      " ed",
      "uc"
    ],
    [
      " s",
      "om"
    ],
    [
      "ra",
      "in"
    ],
    [
      "or",
      "n"
    ],
    [
      " The",
      "re"
    ],
    [
      " st",
      "ill"
    ],
    [
      " under",
      "stand"
    ],
    [
      " w",
      "rit"
    ],
    [
      " ad",
      "v"
    ],
    [
      " e",
      "qu"
    ],
    [
      " know",
      "n"
    ],
    [
      "i",
      "ver"
    ],
    [
      "el",
      "s"
    ],
    [
      "i",
      "od"
    ],
    [
      " app",
      "ro"
    ],
    [
      " A",
      "nd"
    ],
    [
      "iv",
      "en"
    ],
    [
      "es",
      "p"
    ],
    [
      "ater",
      "ial"
    ],
    [
      " p",
      "ract"
    ],
    [
      "os",
      "ed"
    ]
  ],
  "token_to_id": {
    "<|unk|>": 0,
    "<|endoftext|>": 1,
    "\n": 2,
    " ": 3,
    "!": 4,
    "\"": 5,
    "#": 6,
    "$": 7,
    "%": 8,
    "&": 9,
    "'": 10,
    "(": 11,
    ")": 12,
    "*": 13,
    "+": 14,
    ",": 15,
    "-": 16,
    ".": 17,
    "/": 18,
    "0": 19,
    "1": 20,
    "2": 21,
    "3": 22,
    "4": 23,
    "5": 24,
    "6": 25,
    "7": 26,
    "8": 27,
    "9": 28,
    ":": 29,
    ";": 30,
    "<": 31,
    "=": 32,
    ">": 33,
    "?": 34,
    "@": 35,
    "A": 36,
    "B": 37,
    "C": 38,
    "D": 39,
    "E": 40,
    "F": 41,
    "G": 42,
    "H": 43,
    "I": 44,
    "J": 45,
    "K": 46,
    "L": 47,
    "M": 48,
    "N": 49,
    "O": 50,
    "P": 51,
    "Q": 52,
    "R": 53,
    "S": 54,
    "T": 55,
    "U": 56,
    "V": 57,
    "W": 58,
    "X": 59,
    "Y": 60,
    "Z": 61,
    "[": 62,
    "\\": 63,
    "]": 64,
    "^": 65,
    "_": 66,
    "`": 67,
    "a": 68,
    "b": 69,
    "c": 70,
    "d": 71,
    "e": 72,
    "f": 73,
    "g": 74,
    "h": 75,
    "i": 76,
    "j": 77,
    "k": 78,
    "l": 79,
    "m": 80,
    "n": 81,
    "o": 82,
    "p": 83,
    "q": 84,
    "r": 85,
    "s": 86,
    "t": 87,
    "u": 88,
    "v": 89,
    "w": 90,
    "x": 91,
    "y": 92,
    "z": 93,
    "|": 94,
    "}": 95,
    "~": 96,
    " ": 97,
    "¡": 98,
    "¢": 99,
    "£": 100,
    "¤": 101,
    "¥": 102,
    "¦": 103,
    "§": 104,
    "¨": 105,
    "©": 106,
    "ª": 107,
    "«": 108,
    "¬": 109,
    "®": 110,
    "¯": 111,
    "°": 112,
    "±": 113,
    "²": 114,
    "³": 115,
    "´": 116,
    "µ": 117,
    "¶": 118,
    "·": 119,
    "¸": 120,
    "¹": 121,
    "º": 122,
    "»": 123,
    "¼": 124,
    "½": 125,
    "¾": 126,
    "¿": 127,
    "À": 128,
    "Á": 129,
    "Â": 130,
    "Ã": 131,
    "Ä": 132,
    "Å": 133,
    "Æ": 134,
    "Ç": 135,
    "È": 136,
    "É": 137,
    "Ê": 138,
    "Ë": 139,
    "Ì": 140,
    "Í": 141,
    "Î": 142,
    "Ï": 143,
    "Ð": 144,
    "Ñ": 145,
    "Ò": 146,
    "Ó": 147,
    "Ô": 148,
    "Õ": 149,
    "Ö": 150,
    "×": 151,
    "Ø": 152,
    "Ù": 153,
    "Ú": 154,
    "Û": 155,
    "Ü": 156,
    "Ý": 157,
    "Þ": 158,
    "ß": 159,
    "à": 160,
    "á": 161,
    "â": 162,
    "ã": 163,
    "ä": 164,
    "å": 165,
    "æ": 166,
    "ç": 167,
    "è": 168,
    "é": 169,
    "ê": 170,
    "ë": 171,
    "ì": 172,
    "í": 173,
    "î": 174,
    "ï": 175,
    "ð": 176,
    "ñ": 177,
    "ò": 178,
    "ó": 179,
    "ô": 180,
    "õ": 181,
    "ö": 182,
    "÷": 183,
    "ø": 184,
    "ù": 185,
    "ú": 186,
    "û": 187,
    "ü": 188,
    "ý": 189,
    "þ": 190,
    "ÿ": 191,
    "Ā": 192,
    "ā": 193,
    "Ă": 194,
    "ă": 195,
    "Ą": 196,
    "ą": 197,
    "Ć": 198,
    "ć": 199,
    "ĉ": 200,
    "Č": 201,
    "č": 202,
    "Ď": 203,
    "ď": 204,
    "Đ": 205,
    "đ": 206,
    "Ē": 207,
    "ē": 208,
    "ĕ": 209,
    "Ė": 210,
    "ė": 211,
    "ę": 212,
    "Ě": 213,
    "ě": 214,
    "ĝ": 215,
    "Ğ": 216,
    "ğ": 217,
    "Ġ": 218,
    "ġ": 219,
    "ĥ": 220,
    "ħ": 221,
    "ĩ": 222,
    "Ī": 223,
    "ī": 224,
    "ĭ": 225,
    "į": 226,
    "İ": 227,
    "ı": 228,
    "ĵ": 229,
    "ķ": 230,
    "ĺ": 231,
    "Ľ": 232,
    "ľ": 233,
    "Ł": 234,
    "ł": 235,
    "ń": 236,
    "ņ": 237,
    "ň": 238,
    "ŉ": 239,
    "ŋ": 240,
    "Ō": 241,
    "ō": 242,
    "ŏ": 243,
    "ő": 244,
    "Œ": 245,
    "œ": 246,
    "Ř": 247,
    "ř": 248,
    "Ś": 249,
    "ś": 250,
    "ŝ": 251,
    "Ş": 252,
    "ş": 253,
    "Š": 254,
    "š": 255,
    "Ţ": 256,
    "ţ": 257,
    "Ť": 258,
    "ť": 259,
    "ũ": 260,
    "Ū": 261,
    "ū": 262,
    "ŭ": 263,
    "ů": 264,
    "ű": 265,
    "ų": 266,
    "ŵ": 267,
    "ŷ": 268,
    "Ÿ": 269,
    "Ź": 270,
    "ź": 271,
    "Ż": 272,
    "ż": 273,
    "Ž": 274,
    "ž": 275,
    "ſ": 276,
    "Ǝ": 277,
    "ƒ": 278,
    "ƕ": 279,
    "ƛ": 280,
    "ơ": 281,
    "ư": 282,
    "ǂ": 283,
    "ǃ": 284,
    "ǎ": 285,
    "ǐ": 286,
    "ǒ": 287,
    "ǔ": 288,
    "ǖ": 289,
    "ǜ": 290,
    "ǝ": 291,
    "ǣ": 292,
    "Ǧ": 293,
    "ǧ": 294,
    "ǫ": 295,
    "ǰ": 296,
    "ǵ": 297,
    "ǿ": 298,
    "ȋ": 299,
    "Ș": 300,
    "ș": 301,
    "ț": 302,
    "Ȝ": 303,
    "ȝ": 304,
    "ȟ": 305,
    "ȧ": 306,
    "ȳ": 307,
    "ȶ": 308,
    "ɐ": 309,
    "ɑ": 310,
    "ɒ": 311,
    "ɔ": 312,
    "ɕ": 313,
    "ɖ": 314,
    "ə": 315,
    "ɚ": 316,
    "ɛ": 317,
    "ɜ": 318,
    "ɝ": 319,
    "ɟ": 320,
    "ɡ": 321,
    "ɢ": 322,
    "ɣ": 323,
    "ɤ": 324,
    "ɨ": 325,
    "ɪ": 326,
    "ɫ": 327,
    "ɬ": 328,
    "ɮ": 329,
    "ɯ": 330,
    "ɰ": 331,
    "ɱ": 332,
    "ɲ": 333,
    "ɳ": 334,
    "ɴ": 335,
    "ɶ": 336,
    "ɸ": 337,
    "ɹ": 338,
    "ɻ": 339,
    "ɽ": 340,
    "ɾ": 341,
    "ʀ": 342,
    "ʁ": 343,
    "ʂ": 344,
    "ʃ": 345,
    "ʉ": 346,
    "ʊ": 347,
    "ʋ": 348,
    "ʌ": 349,
    "ʏ": 350,
    "ʒ": 351,
    "ʔ": 352,
    "ʕ": 353,
    "ʙ": 354,
    "ʜ": 355,
    "ʟ": 356,
    "ʢ": 357,
    "ʤ": 358,
    "ʰ": 359,
    "ʲ": 360,
    "ʷ": 361,
    "ʹ": 362,
    "ʺ": 363,
    "ʻ": 364,
    "ʼ": 365,
    "ʽ": 366,
    "ʾ": 367,
    "ʿ": 368,
    "ˆ": 369,
    "ˇ": 370,
    "ˈ": 371,
    "ˉ": 372,
    "ˊ": 373,
    "ˌ": 374,
    "ː": 375,
    "ˑ": 376,
    "˘": 377,
    "˚": 378,
    "˛": 379,
    "˜": 380,
    "˝": 381,
    "ˠ": 382,
    "ˤ": 383,
    "̀": 384,
    "́": 385,
    "̂": 386,
    "̃": 387,
    "̄": 388,
    "̅": 389,
    "̈": 390,
    "̑": 391,
    "̓": 392,
    "̙": 393,
    "̚": 394,
    "̜": 395,
    "̝": 396,
    "̞": 397,
    "̟": 398,
    "̠": 399,
    "̣": 400,
    "̥": 401,
    "̧": 402,
    "̩": 403,
    "̪": 404,
    "̯": 405,
    "̳": 406,
    "̴": 407,
    "̶": 408,
    "̹": 409,
    "͞": 410,
    "͡": 411,
    "ͦ": 412,
    "͵": 413,
    "ͻ": 414,
    "΄": 415,
    "Ά": 416,
    "Έ": 417,
    "Ή": 418,
    "Ό": 419,
    "ΐ": 420,
    "Α": 421,
    "Β": 422,
    "Γ": 423,
    "Δ": 424,
    "Ε": 425,
    "Ζ": 426,
    "Η": 427,
    "Θ": 428,
    "Ι": 429,
    "Κ": 430,
    "Λ": 431,
    "Μ": 432,
    "Ν": 433,
    "Ξ": 434,
    "Ο": 435,
    "Π": 436,
    "Ρ": 437,
    "Σ": 438,
    "Τ": 439,
    "Υ": 440,
    "Φ": 441,
    "Χ": 442,
    "Ψ": 443,
    "Ω": 444,
    "ά": 445,
    "έ": 446,
    "ή": 447,
    "ί": 448,
    "α": 449,
    "β": 450,
    "γ": 451,
    "δ": 452,
    "ε": 453,
    "ζ": 454,
    "η": 455,
    "θ": 456,
    "ι": 457,
    "κ": 458,
    "λ": 459,
    "μ": 460,
    "ν": 461,
    "ξ": 462,
    "ο": 463,
    "π": 464,
    "ρ": 465,
    "ς": 466,
    "σ": 467,
    "τ": 468,
    "υ": 469,
    "φ": 470,
    "χ": 471,
    "ψ": 472,
    "ω": 473,
    "ϊ": 474,
    "ϋ": 475,
    "ό": 476,
    "ύ": 477,
    "ώ": 478,
    "ϑ": 479,
    "Ϛ": 480,
    "Ϝ": 481,
    "Ђ": 482,
    "І": 483,
    "А": 484,
    "Б": 485,
    "В": 486,
    "Г": 487,
    "Д": 488,
    "Е": 489,
    "Ж": 490,
    "З": 491,
    "И": 492,
    "Й": 493,
    "К": 494,
    "Л": 495,
    "М": 496,
    "Н": 497,
    "О": 498,
    "П": 499,
    "Р": 500,
    "С": 501,
    "Т": 502,
    "У": 503,
    "Ф": 504,
    "Х": 505,
    "Ц": 506,
    "Ч": 507,
    "Ш": 508,
    "Э": 509,
    "Я": 510,
    "а": 511,
    "б": 512,
    "в": 513,
    "г": 514,
    "д": 515,
    "е": 516,
    "ж": 517,
    "з": 518,
    "и": 519,
    "й": 520,
    "к": 521,
    "л": 522,
    "м": 523,
    "н": 524,
    "о": 525,
    "п": 526,
    "р": 527,
    "с": 528,
    "т": 529,
    "у": 530,
    "ф": 531,
    "х": 532,
    "ц": 533,
    "ч": 534,
    "ш": 535,
    "щ": 536,
    "ъ": 537,
    "ы": 538,
    "ь": 539,
    "э": 540,
    "ю": 541,
    "я": 542,
    "ё": 543,
    "є": 544,
    "ѕ": 545,
    "і": 546,
    "ї": 547,
    "ј": 548,
    "њ": 549,
    "ќ": 550,
    "ѣ": 551,
    "ѳ": 552,
    "ґ": 553,
    "ғ": 554,
    "Қ": 555,
    "қ": 556,
    "Ң": 557,
    "ң": 558,
    "Ү": 559,
    "ү": 560,
    "ұ": 561,
    "һ": 562,
    "ӕ": 563,
    "ә": 564,
    "Ө": 565,
    "ө": 566,
    "Բ": 567,
    "Գ": 568,
    "Ն": 569,
    "Ջ": 570,
    "ա": 571,
    "բ": 572,
    "դ": 573,
    "ե": 574,
    "թ": 575,
    "ի": 576,
    "լ": 577,
    "ծ": 578,
    "հ": 579,
    "մ": 580,
    "յ": 581,
    "ն": 582,
    "ո": 583,
    "ջ": 584,
    "ս": 585,
    "տ": 586,
    "ր": 587,
    "ւ": 588,
    "֗": 589,
    "ְ": 590,
    "ֱ": 591,
    "ֲ": 592,
    "ֳ": 593,
    "ִ": 594,
    "ֵ": 595,
    "ֶ": 596,
    "ַ": 597,
    "ָ": 598,
    "ֹ": 599,
    "ֻ": 600,
    "ּ": 601,
    "־": 602,
    "ׁ": 603,
    "ׂ": 604,
    "׃": 605,
    "ׇ": 606,
    "א": 607,
    "ב": 608,
    "ג": 609,
    "ד": 610,
    "ה": 611,
    "ו": 612,
    "ז": 613,
    "ח": 614,
    "ט": 615,
    "י": 616,
    "ך": 617,
    "כ": 618,
    "ל": 619,
    "ם": 620,
    "מ": 621,
    "ן": 622,
    "נ": 623,
    "ס": 624,
    "ע": 625,
    "ף": 626,
    "פ": 627,
    "ץ": 628,
    "צ": 629,
    "ק": 630,
    "ר": 631,
    "ש": 632,
    "ת": 633,
    "،": 634,
    "؛": 635,
    "؟": 636,
    "ء": 637,
    "آ": 638,
    "أ": 639,
    "ؤ": 640,
    "إ": 641,
    "ئ": 642,
    "ا": 643,
    "ب": 644,
    "ة": 645,
    "ت": 646,
    "ث": 647,
    "ج": 648,
    "ح": 649,
    "خ": 650,
    "د": 651,
    "ذ": 652,
    "ر": 653,
    "ز": 654,
    "س": 655,
    "ش": 656,
    "ص": 657,
    "ض": 658,
    "ط": 659,
    "ظ": 660,
    "ع": 661,
    "غ": 662,
    "ـ": 663,
    "ف": 664,
    "ق": 665,
    "ك": 666,
    "ل": 667,
    "م": 668,
    "ن": 669,
    "ه": 670,
    "و": 671,
    "ى": 672,
    "ي": 673,
    "ً": 674,
    "ٌ": 675,
    "ٍ": 676,
    "َ": 677,
    "ُ": 678,
    "ِ": 679,
    "ّ": 680,
    "ْ": 681,
    "٠": 682,
    "١": 683,
    "٢": 684,
    "٣": 685,
    "٤": 686,
    "٥": 687,
    "٦": 688,
    "٧": 689,
    "٨": 690,
    "٩": 691,
    "ٰ": 692,
    "ٱ": 693,
    "ټ": 694,
    "پ": 695,
    "چ": 696,
    "ڌ": 697,
    "ړ": 698,
    "ژ": 699,
    "ڨ": 700,
    "ک": 701,
    "گ": 702,
    "ں": 703,
    "ھ": 704,
    "ہ": 705,
    "ی": 706,
    "ۍ": 707,
    "ۓ": 708,
    "ۖ": 709,
    "ۗ": 710,
    "۞": 711,
    "۟": 712,
    "ۦ": 713,
    "ݣ": 714,
    "ބ": 715,
    "އ": 716,
    "ވ": 717,
    "ލ": 718,
    "ގ": 719,
    "ޑ": 720,
    "ަ": 721,
    "ި": 722,
    "ު": 723,
    "ޮ": 724,
    "ߘ": 725,
    "ࢹ": 726,
    "ँ": 727,
    "ं": 728,
    "ः": 729,
    "अ": 730,
    "आ": 731,
    "इ": 732,
    "ई": 733,
    "उ": 734,
    "ऊ": 735,
    "ए": 736,
    "ऐ": 737,
    "ऑ": 738,
    "ओ": 739,
    "औ": 740,
    "क": 741,
    "ख": 742,
    "ग": 743,
    "घ": 744,
    "ङ": 745,
    "च": 746,
    "छ": 747,
    "ज": 748,
    "झ": 749,
    "ञ": 750,
    "ट": 751,
    "ठ": 752,
    "ड": 753,
    "ढ": 754,
    "ण": 755,
    "त": 756,
    "थ": 757,
    "द": 758,
    "ध": 759,
    "न": 760,
    "प": 761,
    "फ": 762,
    "ब": 763,
    "भ": 764,
    "म": 765,
    "य": 766,
    "र": 767,
    "ल": 768,
    "ळ": 769,
    "व": 770,
    "श": 771,
    "ष": 772,
    "स": 773,
    "ह": 774,
    "़": 775,
    "ऽ": 776,
    "ा": 777,
    "ि": 778,
    "ी": 779,
    "ु": 780,
    "ू": 781,
    "ृ": 782,
    "े": 783,
    "ै": 784,
    "ॉ": 785,
    "ो": 786,
    "ौ": 787,
    "्": 788,
    "ॐ": 789,
    "॑": 790,
    "॒": 791,
    "।": 792,
    "॥": 793,
    "१": 794,
    "४": 795,
    "५": 796,
    "ঁ": 797,
    "ং": 798,
    "অ": 799,
    "আ": 800,
    "ই": 801,
    "ঋ": 802,
    "এ": 803,
    "ও": 804,
    "ক": 805,
    "খ": 806,
    "গ": 807,
    "ঘ": 808,
    "চ": 809,
    "ছ": 810,
    "জ": 811,
    "ট": 812,
    "ড": 813,
    "ণ": 814,
    "ত": 815,
    "থ": 816,
    "দ": 817,
    "ধ": 818,
    "ন": 819,
    "প": 820,
    "ফ": 821,
    "ব": 822,
    "ভ": 823,
    "ম": 824,
    "য": 825,
    "র": 826,
    "ল": 827,
    "শ": 828,
    "ষ": 829,
    "স": 830,
    "হ": 831,
    "়": 832,
    "া": 833,
    "ি": 834,
    "ী": 835,
    "ু": 836,
    "ূ": 837,
    "ে": 838,
    "ো": 839,
    "্": 840,
    "ৎ": 841,
    "ਆ": 842,
    "ਇ": 843,
    "ਉ": 844,
    "ਊ": 845,
    "ਐ": 846,
    "ਕ": 847,
    "ਗ": 848,
    "ਚ": 849,
    "ਜ": 850,
    "ਤ": 851,
    "ਦ": 852,
    "ਨ": 853,
    "ਪ": 854,
    "ਬ": 855,
    "ਭ": 856,
    "ਮ": 857,
    "ਰ": 858,
    "ਵ": 859,
    "ਸ": 860,
    "ਹ": 861,
    "ਾ": 862,
    "ਿ": 863,
    "ੁ": 864,
    "ੂ": 865,
    "ੇ": 866,
    "ੋ": 867,
    "ੰ": 868,
    "ં": 869,
    "ક": 870,
    "જ": 871,
    "ઠ": 872,
    "ત": 873,
    "થ": 874,
    "દ": 875,
    "ધ": 876,
    "ન": 877,
    "પ": 878,
    "ફ": 879,
    "ભ": 880,
    "મ": 881,
    "ર": 882,
    "વ": 883,
    "શ": 884,
    "ષ": 885,
    "સ": 886,
    "હ": 887,
    "ા": 888,
    "િ": 889,
    "ી": 890,
    "ુ": 891,
    "ૂ": 892,
    "ૃ": 893,
    "ે": 894,
    "્": 895,
    "உ": 896,
    "க": 897,
    "ச": 898,
    "ஜ": 899,
    "ண": 900,
    "த": 901,
    "ந": 902,
    "ப": 903,
    "ம": 904,
    "ய": 905,
    "ர": 906,
    "ல": 907,
    "ழ": 908,
    "ா": 909,
    "ி": 910,
    "ே": 911,
    "்": 912,
    "ం": 913,
    "అ": 914,
    "ఆ": 915,
    "క": 916,
    "గ": 917,
    "డ": 918,
    "ణ": 919,
    "త": 920,
    "ద": 921,
    "న": 922,
    "ప": 923,
    "బ": 924,
    "భ": 925,
    "మ": 926,
    "య": 927,
    "ర": 928,
    "ల": 929,
    "వ": 930,
    "శ": 931,
    "ష": 932,
    "ా": 933,
    "ి": 934,
    "ీ": 935,
    "ు": 936,
    "ూ": 937,
    "ె": 938,
    "ే": 939,
    "ో": 940,
    "్": 941,
    "ಂ": 942,
    "ಅ": 943,
    "ಕ": 944,
    "ಗ": 945,
    "ಚ": 946,
    "ಜ": 947,
    "ಟ": 948,
    "ಡ": 949,
    "ತ": 950,
    "ದ": 951,
    "ನ": 952,
    "ಪ": 953,
    "ಬ": 954,
    "ಭ": 955,
    "ಮ": 956,
    "ಯ": 957,
    "ರ": 958,
    "ಲ": 959,
    "ಳ": 960,
    "ವ": 961,
    "ಶ": 962,
    "ಷ": 963,
    "ಸ": 964,
    "ಹ": 965,
    "ಾ": 966,
    "ಿ": 967,
    "ೀ": 968,
    "ು": 969,
    "ೂ": 970,
    "ೇ": 971,
    "ೈ": 972,
    "್": 973,
    "ക": 974,
    "ഗ": 975,
    "ണ": 976,
    "ത": 977,
    "ന": 978,
    "ഭ": 979,
    "മ": 980,
    "യ": 981,
    "ര": 982,
    "ള": 983,
    "ഷ": 984,
    "ാ": 985,
    "ി": 986,
    "ു": 987,
    "ൂ": 988,
    "്": 989,
    "ං": 990,
    "ඉ": 991,
    "ග": 992,
    "ත": 993,
    "ද": 994,
    "ප": 995,
    "හ": 996,
    "ළ": 997,
    "ා": 998,
    "ි": 999,
    "ก": 1000,
    "ข": 1001,
    "ค": 1002,
    "ง": 1003,
    "จ": 1004,
    "ช": 1005,
    "ซ": 1006,
    "ญ": 1007,
    "ฎ": 1008,
    "ฏ": 1009,
    "ฐ": 1010,
    "ณ": 1011,
    "ด": 1012,
    "ต": 1013,
    "ท": 1014,
    "ธ": 1015,
    "น": 1016,
    "บ": 1017,
    "ป": 1018,
    "ผ": 1019,
    "พ": 1020,
    "ฟ": 1021,
    "ภ": 1022,
    "ม": 1023,
    "ย": 1024,
    "ร": 1025,
    "ล": 1026,
    "ว": 1027,
    "ศ": 1028,
    "ษ": 1029,
    "ส": 1030,
    "ห": 1031,
    "อ": 1032,
    "ะ": 1033,
    "ั": 1034,
    "า": 1035,
    "ำ": 1036,
    "ิ": 1037,
    "ี": 1038,
    "ึ": 1039,
    "ื": 1040,
    "ุ": 1041,
    "ู": 1042,
    "เ": 1043,
    "แ": 1044,
    "โ": 1045,
    "ใ": 1046,
    "ไ": 1047,
    "็": 1048,
    "่": 1049,
    "้": 1050,
    "์": 1051,
    "ກ": 1052,
    "ຄ": 1053,
    "ງ": 1054,
    "ຊ": 1055,
    "ດ": 1056,
    "ຕ": 1057,
    "ຖ": 1058,
    "ທ": 1059,
    "ນ": 1060,
    "ບ": 1061,
    "ປ": 1062,
    "ພ": 1063,
    "ມ": 1064,
    "ລ": 1065,
    "ວ": 1066,
    "ສ": 1067,
    "ຫ": 1068,
    "ອ": 1069,
    "ະ": 1070,
    "ັ": 1071,
    "າ": 1072,
    "ຳ": 1073,
    "ິ": 1074,
    "ຼ": 1075,
    "ຽ": 1076,
    "ເ": 1077,
    "ໄ": 1078,
    "່": 1079,
    "་": 1080,
    "།": 1081,
    "ཀ": 1082,
    "ཁ": 1083,
    "ག": 1084,
    "ང": 1085,
    "ཆ": 1086,
    "ཇ": 1087,
    "ཉ": 1088,
    "ཏ": 1089,
    "ཐ": 1090,
    "ད": 1091,
    "ན": 1092,
    "པ": 1093,
    "བ": 1094,
    "མ": 1095,
    "ཙ": 1096,
    "ཚ": 1097,
    "ཛ": 1098,
    "ཞ": 1099,
    "འ": 1100,
    "ར": 1101,
    "ལ": 1102,
    "ཤ": 1103,
    "ས": 1104,
    "ི": 1105,
    "ུ": 1106,
    "ེ": 1107,
    "ོ": 1108,
    "ྤ": 1109,
    "ྷ": 1110,
    "ྼ": 1111,
    "က": 1112,
    "ခ": 1113,
    "ဂ": 1114,
    "င": 1115,
    "စ": 1116,
    "ဆ": 1117,
    "တ": 1118,
    "န": 1119,
    "ပ": 1120,
    "မ": 1121,
    "ယ": 1122,
    "ရ": 1123,
    "သ": 1124,
    "ဦ": 1125,
    "ိ": 1126,
    "ု": 1127,
    "ေ": 1128,
    "ဲ": 1129,
    "ံ": 1130,
    "့": 1131,
    "း": 1132,
    "်": 1133,
    "ြ": 1134,
    "ွ": 1135,
    "ှ": 1136,
    "ა": 1137,
    "გ": 1138,
    "დ": 1139,
    "ე": 1140,
    "ვ": 1141,
    "თ": 1142,
    "ი": 1143,
    "კ": 1144,
    "ლ": 1145,
    "მ": 1146,
    "ნ": 1147,
    "ო": 1148,
    "რ": 1149,
    "ს": 1150,
    "უ": 1151,
    "ქ": 1152,
    "ღ": 1153,
    "შ": 1154,
    "ხ": 1155,
    "ჯ": 1156,
    "ჵ": 1157,
    "ჺ": 1158,
    "ᅟ": 1159,
    "Ꭲ": 1160,
    "Ꭺ": 1161,
    "Ꮪ": 1162,
    "Ᏻ": 1163,
    "ᐃ": 1164,
    "ᐅ": 1165,
    "ᐊ": 1166,
    "ᐲ": 1167,
    "ᐸ": 1168,
    "ᑎ": 1169,
    "ᑐ": 1170,
    "ᑕ": 1171,
    "ᑦ": 1172,
    "ᑯ": 1173,
    "ᑲ": 1174,
    "ᒃ": 1175,
    "ᒍ": 1176,
    "ᒥ": 1177,
    "ᒧ": 1178,
    "ᓂ": 1179,
    "ᓇ": 1180,
    "ᓐ": 1181,
    "ᓕ": 1182,
    "ᓗ": 1183,
    "ᓪ": 1184,
    "ᓯ": 1185,
    "ᓱ": 1186,
    "ᓴ": 1187,
    "ᔪ": 1188,
    "ᔭ": 1189,
    "ᕆ": 1190,
    "ᕈ": 1191,
    "ᕋ": 1192,
    "ᕐ": 1193,
    "ᖃ": 1194,
    "ᚢ": 1195,
    "ᚱ": 1196,
    "ᚴ": 1197,
    "ᚾ": 1198,
    "ᛁ": 1199,
    "ᛅ": 1200,
    "ᛏ": 1201,
    "ᛘ": 1202,
    "ᛚ": 1203,
    "ក": 1204,
    "គ": 1205,
    "ង": 1206,
    "ច": 1207,
    "ណ": 1208,
    "ត": 1209,
    "ន": 1210,
    "ប": 1211,
    "ព": 1212,
    "ភ": 1213,
    "ម": 1214,
    "រ": 1215,
    "ល": 1216,
    "ស": 1217,
    "អ": 1218,
    "ា": 1219,
    "ិ": 1220,
    "ី": 1221,
    "េ": 1222,
    "ោ": 1223,
    "ំ": 1224,
    "ះ": 1225,
    "់": 1226,
    "្": 1227,
    "ᠠ": 1228,
    "ᠨ": 1229,
    "ᠪ": 1230,
    "ᠮ": 1231,
    "ᠯ": 1232,
    "ᡝ": 1233,
    "ᡠ": 1234,
    "ᡤ": 1235,
    "ᡥ": 1236,
    "ᡨ": 1237,
    "ᡩ": 1238,
    "ᡳ": 1239,
    "ᡵ": 1240,
    "ᴀ": 1241,
    "ᴄ": 1242,
    "ᴅ": 1243,
    "ᴇ": 1244,
    "ᴊ": 1245,
    "ᴋ": 1246,
    "ᴍ": 1247,
    "ᴏ": 1248,
    "ᴘ": 1249,
    "ᴛ": 1250,
    "ᴜ": 1251,
    "ᴠ": 1252,
    "ᴡ": 1253,
    "ᴱ": 1254,
    "ᴹ": 1255,
    "ᵗ": 1256,
    "ᵛ": 1257,
    "Ḍ": 1258,
    "ḍ": 1259,
    "Ḏ": 1260,
    "ḏ": 1261,
    "ḗ": 1262,
    "Ḡ": 1263,
    "ḡ": 1264,
    "Ḥ": 1265,
    "ḥ": 1266,
    "Ḫ": 1267,
    "ḫ": 1268,
    "ḭ": 1269,
    "ḱ": 1270,
    "Ḳ": 1271,
    "ḳ": 1272,
    "Ḵ": 1273,
    "ḵ": 1274,
    "ḷ": 1275,
    "ṁ": 1276,
    "ṃ": 1277,
    "ṅ": 1278,
    "ṇ": 1279,
    "Ṛ": 1280,
    "ṛ": 1281,
    "ṡ": 1282,
    "Ṣ": 1283,
    "ṣ": 1284,
    "Ṭ": 1285,
    "ṭ": 1286,
    "Ṯ": 1287,
    "ṯ": 1288,
    "ṽ": 1289,
    "ẍ": 1290,
    "ẏ": 1291,
    "Ẓ": 1292,
    "ẓ": 1293,
    "ạ": 1294,
    "ả": 1295,
    "ấ": 1296,
    "ầ": 1297,
    "ậ": 1298,
    "ắ": 1299,
    "ằ": 1300,
    "ặ": 1301,
    "ẻ": 1302,
    "ẽ": 1303,
    "ế": 1304,
    "ề": 1305,
    "ễ": 1306,
    "ệ": 1307,
    "ỉ": 1308,
    "ị": 1309,
    "Ọ": 1310,
    "ọ": 1311,
    "ỏ": 1312,
    "ố": 1313,
    "ồ": 1314,
    "ổ": 1315,
    "ộ": 1316,
    "ớ": 1317,
    "ờ": 1318,
    "ở": 1319,
    "ợ": 1320,
    "ụ": 1321,
    "ủ": 1322,
    "ứ": 1323,
    "ừ": 1324,
    "ử": 1325,
    "ữ": 1326,
    "ự": 1327,
    "ỳ": 1328,
    "ỷ": 1329,
    "ἀ": 1330,
    "ἁ": 1331,
    "ἂ": 1332,
    "ἄ": 1333,
    "ἅ": 1334,
    "Ἀ": 1335,
    "Ἁ": 1336,
    "Ἄ": 1337,
    "ἐ": 1338,
    "ἑ": 1339,
    "ἔ": 1340,
    "ἕ": 1341,
    "Ἐ": 1342,
    "Ἑ": 1343,
    "ἡ": 1344,
    "Ἡ": 1345,
    "Ἥ": 1346,
    "ἰ": 1347,
    "ἱ": 1348,
    "ἴ": 1349,
    "ἵ": 1350,
    "ἶ": 1351,
    "Ἰ": 1352,
    "ὀ": 1353,
    "ὁ": 1354,
    "ὃ": 1355,
    "ὄ": 1356,
    "ὅ": 1357,
    "Ὀ": 1358,
    "ὐ": 1359,
    "ὑ": 1360,
    "ὕ": 1361,
    "ὣ": 1362,
    "ὥ": 1363,
    "Ὡ": 1364,
    "ὰ": 1365,
    "ὲ": 1366,
    "ὴ": 1367,
    "ὶ": 1368,
    "ὸ": 1369,
    "ὺ": 1370,
    "ὼ": 1371,
    "ᾖ": 1372,
    "ᾶ": 1373,
    "᾿": 1374,
    "ῃ": 1375,
    "ῆ": 1376,
    "῎": 1377,
    "ῖ": 1378,
    "ῥ": 1379,
    "ῦ": 1380,
    "Ῥ": 1381,
    "ῶ": 1382,
    "ῷ": 1383,
    "῾": 1384,
    " ": 1385,
    " ": 1386,
    "​": 1387,
    "‐": 1388,
    "‑": 1389,
    "‒": 1390,
    "–": 1391,
    "—": 1392,
    "―": 1393,
    "‖": 1394,
    "‘": 1395,
    "’": 1396,
    "‚": 1397,
    "‛": 1398,
    "“": 1399,
    "”": 1400,
    "„": 1401,
    "‟": 1402,
    "†": 1403,
    "‡": 1404,
    "•": 1405,
    "․": 1406,
    "…": 1407,
    "‧": 1408,
    "‰": 1409,
    "′": 1410,
    "″": 1411,
    "‴": 1412,
    "‵": 1413,
    "‶": 1414,
    "‷": 1415,
    "‹": 1416,
    "›": 1417,
    "※": 1418,
    "‼": 1419,
    "‽": 1420,
    "⁃": 1421,
    "⁄": 1422,
    "⁗": 1423,
    "⁡": 1424,
    "⁢": 1425,
    "⁰": 1426,
    "⁴": 1427,
    "⁵": 1428,
    "⁺": 1429,
    "⁻": 1430,
    "₁": 1431,
    "₂": 1432,
    "₃": 1433,
    "₄": 1434,
    "₤": 1435,
    "₦": 1436,
    "€": 1437,
    "₱": 1438,
    "₵": 1439,
    "₹": 1440,
    "℃": 1441,
    "℉": 1442,
    "ℓ": 1443,
    "№": 1444,
    "℗": 1445,
    "ℛ": 1446,
    "ℝ": 1447,
    "™": 1448,
    "⅓": 1449,
    "⅔": 1450,
    "⅕": 1451,
    "⅛": 1452,
    "⅜": 1453,
    "⅝": 1454,
    "Ⅰ": 1455,
    "Ⅱ": 1456,
    "Ⅲ": 1457,
    "Ⅳ": 1458,
    "Ⅴ": 1459,
    "Ⅵ": 1460,
    "Ⅶ": 1461,
    "Ⅷ": 1462,
    "←": 1463,
    "↑": 1464,
    "→": 1465,
    "↓": 1466,
    "↔": 1467,
    "↗": 1468,
    "↘": 1469,
    "↠": 1470,
    "↩": 1471,
    "↴": 1472,
    "↵": 1473,
    "⇐": 1474,
    "⇒": 1475,
    "⇓": 1476,
    "⇔": 1477,
    "⇝": 1478,
    "∂": 1479,
    "∆": 1480,
    "∇": 1481,
    "∈": 1482,
    "∎": 1483,
    "∑": 1484,
    "−": 1485,
    "∗": 1486,
    "∘": 1487,
    "∙": 1488,
    "√": 1489,
    "∝": 1490,
    "∞": 1491,
    "∠": 1492,
    "∧": 1493,
    "∨": 1494,
    "∩": 1495,
    "∫": 1496,
    "∮": 1497,
    "∴": 1498,
    "∵": 1499,
    "∼": 1500,
    "≅": 1501,
    "≈": 1502,
    "≒": 1503,
    "≠": 1504,
    "≡": 1505,
    "≤": 1506,
    "≥": 1507,
    "≦": 1508,
    "≧": 1509,
    "≪": 1510,
    "≻": 1511,
    "⊃": 1512,
    "⊆": 1513,
    "⊕": 1514,
    "⊗": 1515,
    "⊙": 1516,
    "⊢": 1517,
    "⊥": 1518,
    "⋅": 1519,
    "⋯": 1520,
    "⌃": 1521,
    "⌊": 1522,
    "⌋": 1523,
    "⌐": 1524,
    "⌘": 1525,
    "⌛": 1526,
    "⍺": 1527,
    "⎜": 1528,
    "⎯": 1529,
    "①": 1530,
    "②": 1531,
    "③": 1532,
    "④": 1533,
    "⑤": 1534,
    "⑥": 1535,
    "⑦": 1536,
    "⑧": 1537,
    "⑨": 1538,
    "─": 1539,
    "│": 1540,
    "┐": 1541,
    "└": 1542,
    "├": 1543,
    "┤": 1544,
    "┴": 1545,
    "▀": 1546,
    "▐": 1547,
    "■": 1548,
    "□": 1549,
    "▪": 1550,
    "▲": 1551,
    "▶": 1552,
    "▷": 1553,
    "►": 1554,
    "▼": 1555,
    "▽": 1556,
    "◀": 1557,
    "◆": 1558,
    "◇": 1559,
    "◊": 1560,
    "○": 1561,
    "◌": 1562,
    "●": 1563,
    "◙": 1564,
    "◦": 1565,
    "◮": 1566,
    "★": 1567,
    "☆": 1568,
    "☉": 1569,
    "☎": 1570,
    "☛": 1571,
    "☞": 1572,
    "☟": 1573,
    "☹": 1574,
    "☺": 1575,
    "☼": 1576,
    "♀": 1577,
    "♂": 1578,
    "♅": 1579,
    "♇": 1580,
    "♈": 1581,
    "♉": 1582,
    "♊": 1583,
    "♋": 1584,
    "♌": 1585,
    "♍": 1586,
    "♎": 1587,
    "♏": 1588,
    "♐": 1589,
    "♑": 1590,
    "♒": 1591,
    "♓": 1592,
    "♠": 1593,
    "♣": 1594,
    "♥": 1595,
    "♦": 1596,
    "♫": 1597,
    "♭": 1598,
    "♯": 1599,
    "⚑": 1600,
    "⚙": 1601,
    "⛄": 1602,
    "✅": 1603,
    "✈": 1604,
    "✉": 1605,
    "✌": 1606,
    "✍": 1607,
    "✎": 1608,
    "✏": 1609,
    "✒": 1610,
    "✓": 1611,
    "✔": 1612,
    "✧": 1613,
    "✯": 1614,
    "✿": 1615,
    "❄": 1616,
    "❓": 1617,
    "❖": 1618,
    "❗": 1619,
    "❤": 1620,
    "❯": 1621,
    "❶": 1622,
    "➁": 1623,
    "➕": 1624,
    "➖": 1625,
    "➚": 1626,
    "➜": 1627,
    "➡": 1628,
    "➤": 1629,
    "➭": 1630,
    "⟨": 1631,
    "⟩": 1632,
    "⟶": 1633,
    "⠀": 1634,
    "⦁": 1635,
    "⨉": 1636,
    "⩽": 1637,
    "⩾": 1638,
    "⬇": 1639,
    "⭐": 1640,
    "⺇": 1641,
    "、": 1642,
    "。": 1643,
    "々": 1644,
    "〈": 1645,
    "〉": 1646,
    "《": 1647,
    "》": 1648,
    "「": 1649,
    "」": 1650,
    "『": 1651,
    "』": 1652,
    "【": 1653,
    "】": 1654,
    "〔": 1655,
    "〕": 1656,
    "〜": 1657,
    "ぁ": 1658,
    "あ": 1659,
    "い": 1660,
    "う": 1661,
    "え": 1662,
    "お": 1663,
    "か": 1664,
    "が": 1665,
    "き": 1666,
    "ぎ": 1667,
    "く": 1668,
    "ぐ": 1669,
    "け": 1670,
    "げ": 1671,
    "こ": 1672,
    "ご": 1673,
    "さ": 1674,
    "ざ": 1675,
    "し": 1676,
    "じ": 1677,
    "す": 1678,
    "せ": 1679,
    "ぜ": 1680,
    "そ": 1681,
    "た": 1682,
    "だ": 1683,
    "ち": 1684,
    "っ": 1685,
    "つ": 1686,
    "て": 1687,
    "で": 1688,
    "と": 1689,
    "ど": 1690,
    "な": 1691,
    "に": 1692,
    "ぬ": 1693,
    "ね": 1694,
    "の": 1695,
    "は": 1696,
    "ば": 1697,
    "ひ": 1698,
    "び": 1699,
    "ふ": 1700,
    "ぶ": 1701,
    "へ": 1702,
    "べ": 1703,
    "ほ": 1704,
    "ぼ": 1705,
    "ま": 1706,
    "み": 1707,
    "む": 1708,
    "め": 1709,
    "も": 1710,
    "ゃ": 1711,
    "や": 1712,
    "ゅ": 1713,
    "よ": 1714,
    "ら": 1715,
    "り": 1716,
    "る": 1717,
    "れ": 1718,
    "ろ": 1719,
    "わ": 1720,
    "を": 1721,
    "ん": 1722,
    "゚": 1723,
    "゜": 1724,
    "ァ": 1725,
    "ア": 1726,
    "ィ": 1727,
    "イ": 1728,
    "ゥ": 1729,
    "ウ": 1730,
    "ェ": 1731,
    "エ": 1732,
    "ォ": 1733,
    "オ": 1734,
    "カ": 1735,
    "ガ": 1736,
    "キ": 1737,
    "ギ": 1738,
    "ク": 1739,
    "グ": 1740,
    "ケ": 1741,
    "ゲ": 1742,
    "コ": 1743,
    "サ": 1744,
    "シ": 1745,
    "ジ": 1746,
    "ス": 1747,
    "ズ": 1748,
    "セ": 1749,
    "ソ": 1750,
    "ゾ": 1751,
    "タ": 1752,
    "ダ": 1753,
    "チ": 1754,
    "ヂ": 1755,
    "ッ": 1756,
    "ツ": 1757,
    "ヅ": 1758,
    "テ": 1759,
    "デ": 1760,
    "ト": 1761,
    "ニ": 1762,
    "ヌ": 1763,
    "ネ": 1764,
    "ノ": 1765,
    "ハ": 1766,
    "バ": 1767,
    "パ": 1768,
    "ヒ": 1769,
    "ビ": 1770,
    "ピ": 1771,
    "フ": 1772,
    "ブ": 1773,
    "プ": 1774,
    "ヘ": 1775,
    "ペ": 1776,
    "ホ": 1777,
    "ボ": 1778,
    "マ": 1779,
    "ミ": 1780,
    "ム": 1781,
    "メ": 1782,
    "モ": 1783,
    "ャ": 1784,
    "ヤ": 1785,
    "ュ": 1786,
    "ユ": 1787,
    "ョ": 1788,
    "ヨ": 1789,
    "ラ": 1790,
    "リ": 1791,
    "ル": 1792,
    "レ": 1793,
    "ロ": 1794,
    "ワ": 1795,
    "ヰ": 1796,
    "ヱ": 1797,
    "ヲ": 1798,
    "ン": 1799,
    "・": 1800,
    "ー": 1801,
    "ㄎ": 1802,
    "ㄱ": 1803,
    "ㄴ": 1804,
    "ㄷ": 1805,
    "ㄹ": 1806,
    "ㅁ": 1807,
    "ㅂ": 1808,
    "ㅅ": 1809,
    "ㅇ": 1810,
    "ㅈ": 1811,
    "ㅊ": 1812,
    "ㅋ": 1813,
    "ㅌ": 1814,
    "ㅍ": 1815,
    "ㅎ": 1816,
    "ㅏ": 1817,
    "ㅑ": 1818,
    "ㅓ": 1819,
    "ㅕ": 1820,
    "ㅗ": 1821,
    "ㅛ": 1822,
    "ㅜ": 1823,
    "ㅠ": 1824,
    "ㅡ": 1825,
    "ㅣ": 1826,
    "ㇰ": 1827,
    "ㇱ": 1828,
    "ㇲ": 1829,
    "ㇳ": 1830,
    "ㇴ": 1831,
    "ㇵ": 1832,
    "ㇶ": 1833,
    "ㇷ": 1834,
    "ㇸ": 1835,
    "ㇹ": 1836,
    "ㇺ": 1837,
    "ㇻ": 1838,
    "ㇼ": 1839,
    "ㇽ": 1840,
    "ㇾ": 1841,
    "ㇿ": 1842,
    "㎛": 1843,
    "㎢": 1844,
    "䖏": 1845,
    "一": 1846,
    "丁": 1847,
    "七": 1848,
    "万": 1849,
    "三": 1850,
    "上": 1851,
    "下": 1852,
    "不": 1853,
    "与": 1854,
    "丕": 1855,
    "世": 1856,
    "丘": 1857,
    "业": 1858,
    "东": 1859,
    "两": 1860,
    "严": 1861,
    "並": 1862,
    "个": 1863,
    "中": 1864,
    "丰": 1865,
    "临": 1866,
    "丷": 1867,
    "丸": 1868,
    "为": 1869,
    "主": 1870,
    "久": 1871,
    "么": 1872,
    "义": 1873,
    "之": 1874,
    "乎": 1875,
    "乐": 1876,
    "乘": 1877,
    "九": 1878,
    "乞": 1879,
    "也": 1880,
    "习": 1881,
    "乡": 1882,
    "书": 1883,
    "乱": 1884,
    "乾": 1885,
    "了": 1886,
    "予": 1887,
    "争": 1888,
    "事": 1889,
    "二": 1890,
    "于": 1891,
    "云": 1892,
    "互": 1893,
    "五": 1894,
    "井": 1895,
    "亟": 1896,
    "亡": 1897,
    "交": 1898,
    "产": 1899,
    "享": 1900,
    "京": 1901,
    "亭": 1902,
    "人": 1903,
    "亿": 1904,
    "什": 1905,
    "仁": 1906,
    "仇": 1907,
    "今": 1908,
    "介": 1909,
    "从": 1910,
    "仏": 1911,
    "他": 1912,
    "仗": 1913,
    "付": 1914,
    "仙": 1915,
    "代": 1916,
    "以": 1917,
    "们": 1918,
    "仮": 1919,
    "仰": 1920,
    "件": 1921,
    "任": 1922,
    "份": 1923,
    "仿": 1924,
    "伊": 1925,
    "伎": 1926,
    "伏": 1927,
    "伐": 1928,
    "休": 1929,
    "会": 1930,
    "伝": 1931,
    "传": 1932,
    "伤": 1933,
    "伴": 1934,
    "伸": 1935,
    "似": 1936,
    "伽": 1937,
    "但": 1938,
    "佉": 1939,
    "位": 1940,
    "低": 1941,
    "住": 1942,
    "佐": 1943,
    "体": 1944,
    "何": 1945,
    "佘": 1946,
    "余": 1947,
    "佛": 1948,
    "作": 1949,
    "你": 1950,
    "佳": 1951,
    "使": 1952,
    "來": 1953,
    "例": 1954,
    "供": 1955,
    "依": 1956,
    "侯": 1957,
    "侵": 1958,
    "便": 1959,
    "促": 1960,
    "俗": 1961,
    "保": 1962,
    "信": 1963,
    "修": 1964,
    "俱": 1965,
    "俾": 1966,
    "個": 1967,
    "倍": 1968,
    "們": 1969,
    "倒": 1970,
    "候": 1971,
    "値": 1972,
    "倭": 1973,
    "倶": 1974,
    "倻": 1975,
    "做": 1976,
    "停": 1977,
    "健": 1978,
    "偽": 1979,
    "傅": 1980,
    "備": 1981,
    "储": 1982,
    "傾": 1983,
    "僉": 1984,
    "像": 1985,
    "僧": 1986,
    "儀": 1987,
    "億": 1988,
    "儆": 1989,
    "優": 1990,
    "儲": 1991,
    "儿": 1992,
    "元": 1993,
    "兄": 1994,
    "充": 1995,
    "先": 1996,
    "光": 1997,
    "克": 1998,
    "免": 1999,
    "児": 2000,
    "兑": 2001,
    "党": 2002,
    "兜": 2003,
    "入": 2004,
    "內": 2005,
    "全": 2006,
    "兩": 2007,
    "八": 2008,
    "公": 2009,
    "六": 2010,
    "兰": 2011,
    "共": 2012,
    "兲": 2013,
    "关": 2014,
    "兵": 2015,
    "其": 2016,
    "具": 2017,
    "典": 2018,
    "兼": 2019,
    "内": 2020,
    "円": 2021,
    "冈": 2022,
    "冊": 2023,
    "再": 2024,
    "冎": 2025,
    "写": 2026,
    "军": 2027,
    "农": 2028,
    "冠": 2029,
    "冨": 2030,
    "冬": 2031,
    "冰": 2032,
    "冲": 2033,
    "决": 2034,
    "准": 2035,
    "凉": 2036,
    "凋": 2037,
    "凍": 2038,
    "処": 2039,
    "出": 2040,
    "函": 2041,
    "刀": 2042,
    "分": 2043,
    "切": 2044,
    "刊": 2045,
    "刑": 2046,
    "划": 2047,
    "列": 2048,
    "刘": 2049,
    "则": 2050,
    "初": 2051,
    "判": 2052,
    "別": 2053,
    "利": 2054,
    "刪": 2055,
    "到": 2056,
    "制": 2057,
    "刺": 2058,
    "則": 2059,
    "前": 2060,
    "剎": 2061,
    "剛": 2062,
    "剣": 2063,
    "剤": 2064,
    "割": 2065,
    "創": 2066,
    "劇": 2067,
    "劈": 2068,
    "劉": 2069,
    "劍": 2070,
    "力": 2071,
    "劝": 2072,
    "功": 2073,
    "加": 2074,
    "务": 2075,
    "动": 2076,
    "助": 2077,
    "劫": 2078,
    "劬": 2079,
    "勅": 2080,
    "勒": 2081,
    "動": 2082,
    "務": 2083,
    "勝": 2084,
    "勞": 2085,
    "募": 2086,
    "勢": 2087,
    "勤": 2088,
    "勧": 2089,
    "勸": 2090,
    "勺": 2091,
    "包": 2092,
    "化": 2093,
    "北": 2094,
    "匯": 2095,
    "区": 2096,
    "医": 2097,
    "匿": 2098,
    "區": 2099,
    "十": 2100,
    "千": 2101,
    "午": 2102,
    "半": 2103,
    "卍": 2104,
    "华": 2105,
    "协": 2106,
    "卐": 2107,
    "協": 2108,
    "卖": 2109,
    "南": 2110,
    "博": 2111,
    "卦": 2112,
    "卯": 2113,
    "即": 2114,
    "却": 2115,
    "卷": 2116,
    "原": 2117,
    "厳": 2118,
    "去": 2119,
    "县": 2120,
    "参": 2121,
    "參": 2122,
    "又": 2123,
    "叉": 2124,
    "及": 2125,
    "友": 2126,
    "反": 2127,
    "发": 2128,
    "取": 2129,
    "受": 2130,
    "叡": 2131,
    "叢": 2132,
    "口": 2133,
    "古": 2134,
    "句": 2135,
    "叩": 2136,
    "只": 2137,
    "叫": 2138,
    "可": 2139,
    "台": 2140,
    "史": 2141,
    "右": 2142,
    "号": 2143,
    "司": 2144,
    "吃": 2145,
    "各": 2146,
    "合": 2147,
    "吉": 2148,
    "同": 2149,
    "名": 2150,
    "后": 2151,
    "向": 2152,
    "吗": 2153,
    "君": 2154,
    "否": 2155,
    "含": 2156,
    "听": 2157,
    "启": 2158,
    "吳": 2159,
    "吸": 2160,
    "吹": 2161,
    "吼": 2162,
    "告": 2163,
    "周": 2164,
    "味": 2165,
    "呼": 2166,
    "命": 2167,
    "咄": 2168,
    "咋": 2169,
    "和": 2170,
    "咼": 2171,
    "哀": 2172,
    "品": 2173,
    "哈": 2174,
    "員": 2175,
    "哥": 2176,
    "哲": 2177,
    "唐": 2178,
    "售": 2179,
    "唯": 2180,
    "商": 2181,
    "啊": 2182,
    "問": 2183,
    "啓": 2184,
    "啟": 2185,
    "啪": 2186,
    "善": 2187,
    "喚": 2188,
    "喜": 2189,
    "喪": 2190,
    "喫": 2191,
    "單": 2192,
    "営": 2193,
    "喻": 2194,
    "嗣": 2195,
    "嘉": 2196,
    "器": 2197,
    "嚴": 2198,
    "囍": 2199,
    "四": 2200,
    "回": 2201,
    "因": 2202,
    "団": 2203,
    "困": 2204,
    "図": 2205,
    "国": 2206,
    "图": 2207,
    "圆": 2208,
    "國": 2209,
    "圏": 2210,
    "園": 2211,
    "圓": 2212,
    "圖": 2213,
    "土": 2214,
    "圧": 2215,
    "在": 2216,
    "地": 2217,
    "圳": 2218,
    "场": 2219,
    "坂": 2220,
    "均": 2221,
    "坊": 2222,
    "坐": 2223,
    "坑": 2224,
    "块": 2225,
    "坡": 2226,
    "型": 2227,
    "城": 2228,
    "域": 2229,
    "執": 2230,
    "基": 2231,
    "埼": 2232,
    "堂": 2233,
    "堪": 2234,
    "報": 2235,
    "場": 2236,
    "塊": 2237,
    "塑": 2238,
    "塔": 2239,
    "塘": 2240,
    "塚": 2241,
    "塞": 2242,
    "填": 2243,
    "塵": 2244,
    "増": 2245,
    "壊": 2246,
    "壞": 2247,
    "士": 2248,
    "壬": 2249,
    "声": 2250,
    "売": 2251,
    "壺": 2252,
    "处": 2253,
    "备": 2254,
    "夏": 2255,
    "外": 2256,
    "多": 2257,
    "夜": 2258,
    "夢": 2259,
    "大": 2260,
    "天": 2261,
    "太": 2262,
    "夫": 2263,
    "央": 2264,
    "头": 2265,
    "夷": 2266,
    "奇": 2267,
    "奚": 2268,
    "奥": 2269,
    "女": 2270,
    "好": 2271,
    "如": 2272,
    "妃": 2273,
    "妄": 2274,
    "妖": 2275,
    "姉": 2276,
    "始": 2277,
    "姐": 2278,
    "委": 2279,
    "姜": 2280,
    "姫": 2281,
    "威": 2282,
    "娑": 2283,
    "娱": 2284,
    "婆": 2285,
    "子": 2286,
    "孔": 2287,
    "字": 2288,
    "存": 2289,
    "孙": 2290,
    "孝": 2291,
    "孟": 2292,
    "季": 2293,
    "孤": 2294,
    "学": 2295,
    "孩": 2296,
    "孫": 2297,
    "學": 2298,
    "宁": 2299,
    "它": 2300,
    "宅": 2301,
    "宇": 2302,
    "守": 2303,
    "安": 2304,
    "宋": 2305,
    "完": 2306,
    "宍": 2307,
    "宗": 2308,
    "官": 2309,
    "宙": 2310,
    "定": 2311,
    "宜": 2312,
    "宝": 2313,
    "实": 2314,
    "実": 2315,
    "客": 2316,
    "宣": 2317,
    "室": 2318,
    "宥": 2319,
    "宮": 2320,
    "宰": 2321,
    "害": 2322,
    "家": 2323,
    "寂": 2324,
    "寄": 2325,
    "密": 2326,
    "富": 2327,
    "寒": 2328,
    "寔": 2329,
    "寝": 2330,
    "察": 2331,
    "實": 2332,
    "寧": 2333,
    "審": 2334,
    "寫": 2335,
    "寶": 2336,
    "寸": 2337,
    "对": 2338,
    "寺": 2339,
    "导": 2340,
    "対": 2341,
    "寿": 2342,
    "封": 2343,
    "専": 2344,
    "将": 2345,
    "將": 2346,
    "尊": 2347,
    "對": 2348,
    "小": 2349,
    "少": 2350,
    "尤": 2351,
    "就": 2352,
    "尸": 2353,
    "尻": 2354,
    "尼": 2355,
    "尽": 2356,
    "尾": 2357,
    "局": 2358,
    "居": 2359,
    "屈": 2360,
    "屋": 2361,
    "屍": 2362,
    "屎": 2363,
    "展": 2364,
    "属": 2365,
    "層": 2366,
    "履": 2367,
    "山": 2368,
    "岐": 2369,
    "岡": 2370,
    "岩": 2371,
    "岳": 2372,
    "岸": 2373,
    "峰": 2374,
    "島": 2375,
    "崇": 2376,
    "崎": 2377,
    "崔": 2378,
    "崛": 2379,
    "崤": 2380,
    "崩": 2381,
    "嵐": 2382,
    "嵩": 2383,
    "嵬": 2384,
    "嶋": 2385,
    "嶽": 2386,
    "川": 2387,
    "州": 2388,
    "工": 2389,
    "左": 2390,
    "巧": 2391,
    "巫": 2392,
    "己": 2393,
    "已": 2394,
    "巳": 2395,
    "巴": 2396,
    "巻": 2397,
    "币": 2398,
    "市": 2399,
    "布": 2400,
    "师": 2401,
    "帐": 2402,
    "帖": 2403,
    "帝": 2404,
    "带": 2405,
    "師": 2406,
    "席": 2407,
    "帯": 2408,
    "帰": 2409,
    "帶": 2410,
    "常": 2411,
    "幕": 2412,
    "幡": 2413,
    "幣": 2414,
    "干": 2415,
    "平": 2416,
    "年": 2417,
    "并": 2418,
    "幸": 2419,
    "幹": 2420,
    "广": 2421,
    "庁": 2422,
    "広": 2423,
    "庄": 2424,
    "序": 2425,
    "应": 2426,
    "底": 2427,
    "店": 2428,
    "府": 2429,
    "度": 2430,
    "座": 2431,
    "庫": 2432,
    "庭": 2433,
    "庵": 2434,
    "庶": 2435,
    "康": 2436,
    "廟": 2437,
    "廢": 2438,
    "廣": 2439,
    "延": 2440,
    "建": 2441,
    "廻": 2442,
    "廿": 2443,
    "开": 2444,
    "弁": 2445,
    "式": 2446,
    "弓": 2447,
    "引": 2448,
    "弗": 2449,
    "弟": 2450,
    "弥": 2451,
    "弨": 2452,
    "張": 2453,
    "強": 2454,
    "强": 2455,
    "弾": 2456,
    "彌": 2457,
    "当": 2458,
    "彡": 2459,
    "形": 2460,
    "彦": 2461,
    "彩": 2462,
    "役": 2463,
    "彼": 2464,
    "很": 2465,
    "後": 2466,
    "従": 2467,
    "得": 2468,
    "御": 2469,
    "復": 2470,
    "循": 2471,
    "微": 2472,
    "徳": 2473,
    "德": 2474,
    "徹": 2475,
    "心": 2476,
    "必": 2477,
    "忉": 2478,
    "忍": 2479,
    "志": 2480,
    "忘": 2481,
    "応": 2482,
    "忝": 2483,
    "忠": 2484,
    "快": 2485,
    "念": 2486,
    "忿": 2487,
    "怎": 2488,
    "怛": 2489,
    "思": 2490,
    "急": 2491,
    "性": 2492,
    "怨": 2493,
    "怪": 2494,
    "恒": 2495,
    "恨": 2496,
    "恩": 2497,
    "息": 2498,
    "恵": 2499,
    "悔": 2500,
    "悟": 2501,
    "患": 2502,
    "您": 2503,
    "悲": 2504,
    "悶": 2505,
    "情": 2506,
    "惑": 2507,
    "惟": 2508,
    "惠": 2509,
    "惡": 2510,
    "惣": 2511,
    "惯": 2512,
    "惱": 2513,
    "想": 2514,
    "惺": 2515,
    "意": 2516,
    "愛": 2517,
    "感": 2518,
    "愧": 2519,
    "慈": 2520,
    "慎": 2521,
    "慕": 2522,
    "慧": 2523,
    "慮": 2524,
    "慶": 2525,
    "憂": 2526,
    "憊": 2527,
    "憍": 2528,
    "憫": 2529,
    "憲": 2530,
    "應": 2531,
    "懷": 2532,
    "戏": 2533,
    "成": 2534,
    "我": 2535,
    "戒": 2536,
    "或": 2537,
    "战": 2538,
    "戦": 2539,
    "戰": 2540,
    "戴": 2541,
    "户": 2542,
    "戸": 2543,
    "房": 2544,
    "所": 2545,
    "手": 2546,
    "才": 2547,
    "扎": 2548,
    "打": 2549,
    "扬": 2550,
    "扶": 2551,
    "批": 2552,
    "技": 2553,
    "抄": 2554,
    "把": 2555,
    "投": 2556,
    "抗": 2557,
    "折": 2558,
    "抣": 2559,
    "报": 2560,
    "押": 2561,
    "抽": 2562,
    "拍": 2563,
    "拘": 2564,
    "拳": 2565,
    "拾": 2566,
    "持": 2567,
    "指": 2568,
    "按": 2569,
    "振": 2570,
    "捉": 2571,
    "捕": 2572,
    "换": 2573,
    "捨": 2574,
    "据": 2575,
    "捺": 2576,
    "捻": 2577,
    "掌": 2578,
    "掐": 2579,
    "排": 2580,
    "掛": 2581,
    "採": 2582,
    "探": 2583,
    "提": 2584,
    "握": 2585,
    "損": 2586,
    "搭": 2587,
    "摩": 2588,
    "摸": 2589,
    "撫": 2590,
    "擇": 2591,
    "擋": 2592,
    "攝": 2593,
    "支": 2594,
    "收": 2595,
    "改": 2596,
    "放": 2597,
    "政": 2598,
    "故": 2599,
    "教": 2600,
    "敦": 2601,
    "敬": 2602,
    "数": 2603,
    "文": 2604,
    "斎": 2605,
    "斐": 2606,
    "斗": 2607,
    "料": 2608,
    "斜": 2609,
    "斯": 2610,
    "新": 2611,
    "方": 2612,
    "於": 2613,
    "施": 2614,
    "旃": 2615,
    "旅": 2616,
    "旋": 2617,
    "族": 2618,
    "旗": 2619,
    "无": 2620,
    "日": 2621,
    "旨": 2622,
    "早": 2623,
    "旬": 2624,
    "旭": 2625,
    "时": 2626,
    "旺": 2627,
    "昆": 2628,
    "昇": 2629,
    "明": 2630,
    "易": 2631,
    "星": 2632,
    "映": 2633,
    "春": 2634,
    "昧": 2635,
    "昭": 2636,
    "是": 2637,
    "昶": 2638,
    "時": 2639,
    "晋": 2640,
    "普": 2641,
    "景": 2642,
    "智": 2643,
    "暖": 2644,
    "暗": 2645,
    "暦": 2646,
    "暫": 2647,
    "曇": 2648,
    "曉": 2649,
    "更": 2650,
    "書": 2651,
    "曹": 2652,
    "曼": 2653,
    "曾": 2654,
    "最": 2655,
    "會": 2656,
    "月": 2657,
    "有": 2658,
    "服": 2659,
    "望": 2660,
    "朝": 2661,
    "期": 2662,
    "木": 2663,
    "末": 2664,
    "本": 2665,
    "札": 2666,
    "术": 2667,
    "朱": 2668,
    "杉": 2669,
    "李": 2670,
    "材": 2671,
    "村": 2672,
    "杜": 2673,
    "束": 2674,
    "条": 2675,
    "来": 2676,
    "杨": 2677,
    "杭": 2678,
    "東": 2679,
    "杵": 2680,
    "松": 2681,
    "板": 2682,
    "极": 2683,
    "林": 2684,
    "果": 2685,
    "架": 2686,
    "柄": 2687,
    "柔": 2688,
    "查": 2689,
    "柯": 2690,
    "柱": 2691,
    "柴": 2692,
    "査": 2693,
    "栄": 2694,
    "标": 2695,
    "栖": 2696,
    "栗": 2697,
    "校": 2698,
    "栴": 2699,
    "样": 2700,
    "核": 2701,
    "根": 2702,
    "格": 2703,
    "桂": 2704,
    "桃": 2705,
    "案": 2706,
    "桓": 2707,
    "梁": 2708,
    "梅": 2709,
    "條": 2710,
    "梨": 2711,
    "梵": 2712,
    "棄": 2713,
    "棚": 2714,
    "森": 2715,
    "植": 2716,
    "楊": 2717,
    "楚": 2718,
    "楞": 2719,
    "業": 2720,
    "極": 2721,
    "楷": 2722,
    "楽": 2723,
    "概": 2724,
    "榓": 2725,
    "榕": 2726,
    "槃": 2727,
    "構": 2728,
    "様": 2729,
    "槟": 2730,
    "槻": 2731,
    "樂": 2732,
    "樓": 2733,
    "樞": 2734,
    "模": 2735,
    "樣": 2736,
    "権": 2737,
    "横": 2738,
    "樹": 2739,
    "樺": 2740,
    "橋": 2741,
    "橛": 2742,
    "機": 2743,
    "檀": 2744,
    "檙": 2745,
    "檚": 2746,
    "櫛": 2747,
    "權": 2748,
    "次": 2749,
    "欢": 2750,
    "欲": 2751,
    "欽": 2752,
    "款": 2753,
    "歌": 2754,
    "止": 2755,
    "正": 2756,
    "此": 2757,
    "步": 2758,
    "武": 2759,
    "歯": 2760,
    "歳": 2761,
    "歴": 2762,
    "死": 2763,
    "殊": 2764,
    "残": 2765,
    "殖": 2766,
    "段": 2767,
    "殿": 2768,
    "母": 2769,
    "毎": 2770,
    "每": 2771,
    "毒": 2772,
    "比": 2773,
    "毘": 2774,
    "氏": 2775,
    "民": 2776,
    "气": 2777,
    "気": 2778,
    "氣": 2779,
    "水": 2780,
    "氵": 2781,
    "永": 2782,
    "汁": 2783,
    "求": 2784,
    "汉": 2785,
    "江": 2786,
    "池": 2787,
    "汪": 2788,
    "決": 2789,
    "沃": 2790,
    "沈": 2791,
    "沒": 2792,
    "沖": 2793,
    "沘": 2794,
    "沙": 2795,
    "没": 2796,
    "沪": 2797,
    "河": 2798,
    "沸": 2799,
    "治": 2800,
    "況": 2801,
    "泄": 2802,
    "泉": 2803,
    "法": 2804,
    "泗": 2805,
    "波": 2806,
    "泥": 2807,
    "注": 2808,
    "泪": 2809,
    "泰": 2810,
    "泳": 2811,
    "洗": 2812,
    "洛": 2813,
    "津": 2814,
    "洲": 2815,
    "洹": 2816,
    "活": 2817,
    "流": 2818,
    "浄": 2819,
    "浅": 2820,
    "浒": 2821,
    "浙": 2822,
    "浜": 2823,
    "浪": 2824,
    "浮": 2825,
    "海": 2826,
    "涂": 2827,
    "涅": 2828,
    "消": 2829,
    "涌": 2830,
    "涙": 2831,
    "淀": 2832,
    "淡": 2833,
    "淨": 2834,
    "深": 2835,
    "淵": 2836,
    "清": 2837,
    "済": 2838,
    "渊": 2839,
    "渋": 2840,
    "渠": 2841,
    "渡": 2842,
    "港": 2843,
    "渴": 2844,
    "游": 2845,
    "湍": 2846,
    "湖": 2847,
    "湘": 2848,
    "満": 2849,
    "源": 2850,
    "準": 2851,
    "溥": 2852,
    "溫": 2853,
    "溶": 2854,
    "滅": 2855,
    "滇": 2856,
    "滑": 2857,
    "满": 2858,
    "滿": 2859,
    "漏": 2860,
    "漓": 2861,
    "演": 2862,
    "漚": 2863,
    "漢": 2864,
    "漫": 2865,
    "潤": 2866,
    "潮": 2867,
    "潼": 2868,
    "澄": 2869,
    "濁": 2870,
    "濃": 2871,
    "濟": 2872,
    "濱": 2873,
    "火": 2874,
    "灵": 2875,
    "灸": 2876,
    "炎": 2877,
    "炙": 2878,
    "炭": 2879,
    "点": 2880,
    "為": 2881,
    "烏": 2882,
    "烤": 2883,
    "热": 2884,
    "無": 2885,
    "焦": 2886,
    "然": 2887,
    "焼": 2888,
    "煎": 2889,
    "照": 2890,
    "煩": 2891,
    "煮": 2892,
    "熊": 2893,
    "熱": 2894,
    "燃": 2895,
    "燈": 2896,
    "燒": 2897,
    "燕": 2898,
    "營": 2899,
    "爆": 2900,
    "爱": 2901,
    "父": 2902,
    "爾": 2903,
    "片": 2904,
    "版": 2905,
    "牌": 2906,
    "牛": 2907,
    "牟": 2908,
    "牧": 2909,
    "物": 2910,
    "特": 2911,
    "犍": 2912,
    "犢": 2913,
    "状": 2914,
    "狂": 2915,
    "狭": 2916,
    "猪": 2917,
    "猫": 2918,
    "猿": 2919,
    "獄": 2920,
    "獨": 2921,
    "獲": 2922,
    "獻": 2923,
    "玄": 2924,
    "率": 2925,
    "玉": 2926,
    "王": 2927,
    "玖": 2928,
    "环": 2929,
    "现": 2930,
    "玲": 2931,
    "珍": 2932,
    "班": 2933,
    "現": 2934,
    "球": 2935,
    "理": 2936,
    "琴": 2937,
    "瑗": 2938,
    "瑜": 2939,
    "瑠": 2940,
    "璃": 2941,
    "環": 2942,
    "瓊": 2943,
    "瓦": 2944,
    "甄": 2945,
    "甘": 2946,
    "甚": 2947,
    "生": 2948,
    "産": 2949,
    "用": 2950,
    "田": 2951,
    "由": 2952,
    "甲": 2953,
    "申": 2954,
    "电": 2955,
    "男": 2956,
    "町": 2957,
    "画": 2958,
    "界": 2959,
    "畏": 2960,
    "略": 2961,
    "番": 2962,
    "當": 2963,
    "畿": 2964,
    "疑": 2965,
    "疾": 2966,
    "病": 2967,
    "症": 2968,
    "痛": 2969,
    "瘦": 2970,
    "療": 2971,
    "癡": 2972,
    "癸": 2973,
    "発": 2974,
    "白": 2975,
    "百": 2976,
    "的": 2977,
    "皆": 2978,
    "皇": 2979,
    "盛": 2980,
    "盡": 2981,
    "監": 2982,
    "盧": 2983,
    "目": 2984,
    "盲": 2985,
    "直": 2986,
    "相": 2987,
    "省": 2988,
    "看": 2989,
    "県": 2990,
    "真": 2991,
    "眦": 2992,
    "眼": 2993,
    "眾": 2994,
    "着": 2995,
    "睒": 2996,
    "睚": 2997,
    "睡": 2998,
    "督": 2999,
    "睦": 3000,
    "睺": 3001,
    "瞋": 3002,
    "瞎": 3003,
    "瞿": 3004,
    "知": 3005,
    "矩": 3006,
    "短": 3007,
    "石": 3008,
    "砂": 3009,
    "研": 3010,
    "砥": 3011,
    "破": 3012,
    "硬": 3013,
    "確": 3014,
    "磅": 3015,
    "磨": 3016,
    "礎": 3017,
    "礙": 3018,
    "示": 3019,
    "社": 3020,
    "祇": 3021,
    "祐": 3022,
    "祚": 3023,
    "神": 3024,
    "祠": 3025,
    "祥": 3026,
    "票": 3027,
    "祭": 3028,
    "祷": 3029,
    "禁": 3030,
    "禎": 3031,
    "福": 3032,
    "禘": 3033,
    "禪": 3034,
    "禮": 3035,
    "禾": 3036,
    "私": 3037,
    "秋": 3038,
    "种": 3039,
    "科": 3040,
    "秒": 3041,
    "秦": 3042,
    "积": 3043,
    "称": 3044,
    "程": 3045,
    "稜": 3046,
    "種": 3047,
    "稱": 3048,
    "稲": 3049,
    "稿": 3050,
    "穂": 3051,
    "積": 3052,
    "究": 3053,
    "空": 3054,
    "突": 3055,
    "窃": 3056,
    "窓": 3057,
    "窟": 3058,
    "立": 3059,
    "竜": 3060,
    "竞": 3061,
    "竟": 3062,
    "章": 3063,
    "童": 3064,
    "竭": 3065,
    "端": 3066,
    "竹": 3067,
    "笑": 3068,
    "符": 3069,
    "第": 3070,
    "等": 3071,
    "筒": 3072,
    "答": 3073,
    "策": 3074,
    "简": 3075,
    "箏": 3076,
    "算": 3077,
    "管": 3078,
    "節": 3079,
    "範": 3080,
    "篆": 3081,
    "篇": 3082,
    "築": 3083,
    "籍": 3084,
    "籏": 3085,
    "籠": 3086,
    "米": 3087,
    "类": 3088,
    "粒": 3089,
    "粘": 3090,
    "精": 3091,
    "糊": 3092,
    "糖": 3093,
    "糟": 3094,
    "系": 3095,
    "紀": 3096,
    "約": 3097,
    "紅": 3098,
    "紙": 3099,
    "級": 3100,
    "素": 3101,
    "索": 3102,
    "紫": 3103,
    "累": 3104,
    "細": 3105,
    "紹": 3106,
    "組": 3107,
    "経": 3108,
    "結": 3109,
    "絞": 3110,
    "給": 3111,
    "統": 3112,
    "絵": 3113,
    "經": 3114,
    "継": 3115,
    "綠": 3116,
    "維": 3117,
    "綱": 3118,
    "綺": 3119,
    "綿": 3120,
    "総": 3121,
    "緑": 3122,
    "緒": 3123,
    "線": 3124,
    "緣": 3125,
    "編": 3126,
    "緯": 3127,
    "縁": 3128,
    "縄": 3129,
    "縣": 3130,
    "縦": 3131,
    "縮": 3132,
    "繁": 3133,
    "繋": 3134,
    "繩": 3135,
    "纂": 3136,
    "續": 3137,
    "约": 3138,
    "纪": 3139,
    "纯": 3140,
    "纸": 3141,
    "纽": 3142,
    "线": 3143,
    "组": 3144,
    "细": 3145,
    "经": 3146,
    "结": 3147,
    "给": 3148,
    "统": 3149,
    "维": 3150,
    "编": 3151,
    "网": 3152,
    "罪": 3153,
    "置": 3154,
    "署": 3155,
    "羅": 3156,
    "羊": 3157,
    "美": 3158,
    "群": 3159,
    "義": 3160,
    "羲": 3161,
    "羹": 3162,
    "翁": 3163,
    "翅": 3164,
    "習": 3165,
    "翠": 3166,
    "耀": 3167,
    "老": 3168,
    "考": 3169,
    "者": 3170,
    "耆": 3171,
    "而": 3172,
    "耨": 3173,
    "耳": 3174,
    "耶": 3175,
    "聖": 3176,
    "聘": 3177,
    "聚": 3178,
    "聞": 3179,
    "聯": 3180,
    "聲": 3181,
    "職": 3182,
    "肉": 3183,
    "肘": 3184,
    "育": 3185,
    "肿": 3186,
    "背": 3187,
    "胎": 3188,
    "胝": 3189,
    "胞": 3190,
    "胡": 3191,
    "胸": 3192,
    "能": 3193,
    "脫": 3194,
    "腔": 3195,
    "腕": 3196,
    "腰": 3197,
    "腸": 3198,
    "膚": 3199,
    "膝": 3200,
    "臟": 3201,
    "臨": 3202,
    "自": 3203,
    "至": 3204,
    "致": 3205,
    "臼": 3206,
    "與": 3207,
    "興": 3208,
    "舌": 3209,
    "舍": 3210,
    "舜": 3211,
    "舞": 3212,
    "般": 3213,
    "船": 3214,
    "良": 3215,
    "色": 3216,
    "艺": 3217,
    "节": 3218,
    "芝": 3219,
    "芦": 3220,
    "花": 3221,
    "芸": 3222,
    "苏": 3223,
    "苑": 3224,
    "苔": 3225,
    "若": 3226,
    "苦": 3227,
    "英": 3228,
    "范": 3229,
    "茶": 3230,
    "荀": 3231,
    "草": 3232,
    "荏": 3233,
    "荣": 3234,
    "荷": 3235,
    "荼": 3236,
    "莫": 3237,
    "菅": 3238,
    "菜": 3239,
    "菩": 3240,
    "華": 3241,
    "菴": 3242,
    "萁": 3243,
    "落": 3244,
    "葉": 3245,
    "著": 3246,
    "葫": 3247,
    "葵": 3248,
    "蒙": 3249,
    "蒸": 3250,
    "蓄": 3251,
    "蓋": 3252,
    "蓓": 3253,
    "蔘": 3254,
    "蔚": 3255,
    "蔭": 3256,
    "蔵": 3257,
    "薄": 3258,
    "薩": 3259,
    "薫": 3260,
    "薬": 3261,
    "薰": 3262,
    "藉": 3263,
    "藍": 3264,
    "藏": 3265,
    "藐": 3266,
    "藤": 3267,
    "藻": 3268,
    "蘇": 3269,
    "蘊": 3270,
    "蘭": 3271,
    "虎": 3272,
    "虔": 3273,
    "處": 3274,
    "虛": 3275,
    "虞": 3276,
    "號": 3277,
    "蛇": 3278,
    "蛙": 3279,
    "蜀": 3280,
    "蜂": 3281,
    "蜜": 3282,
    "螺": 3283,
    "血": 3284,
    "衅": 3285,
    "衆": 3286,
    "行": 3287,
    "衍": 3288,
    "術": 3289,
    "街": 3290,
    "衛": 3291,
    "衡": 3292,
    "衢": 3293,
    "衣": 3294,
    "补": 3295,
    "表": 3296,
    "袁": 3297,
    "被": 3298,
    "装": 3299,
    "裏": 3300,
    "裕": 3301,
    "補": 3302,
    "裝": 3303,
    "裸": 3304,
    "製": 3305,
    "襲": 3306,
    "西": 3307,
    "要": 3308,
    "見": 3309,
    "規": 3310,
    "視": 3311,
    "親": 3312,
    "覺": 3313,
    "觀": 3314,
    "观": 3315,
    "规": 3316,
    "视": 3317,
    "角": 3318,
    "解": 3319,
    "触": 3320,
    "言": 3321,
    "訂": 3322,
    "計": 3323,
    "訓": 3324,
    "記": 3325,
    "設": 3326,
    "許": 3327,
    "訳": 3328,
    "訶": 3329,
    "証": 3330,
    "詁": 3331,
    "詞": 3332,
    "詢": 3333,
    "詣": 3334,
    "詮": 3335,
    "詰": 3336,
    "話": 3337,
    "該": 3338,
    "誌": 3339,
    "認": 3340,
    "語": 3341,
    "誠": 3342,
    "誥": 3343,
    "說": 3344,
    "説": 3345,
    "読": 3346,
    "誼": 3347,
    "調": 3348,
    "談": 3349,
    "請": 3350,
    "諍": 3351,
    "論": 3352,
    "諦": 3353,
    "諭": 3354,
    "諸": 3355,
    "諺": 3356,
    "謀": 3357,
    "講": 3358,
    "謝": 3359,
    "證": 3360,
    "識": 3361,
    "譜": 3362,
    "譬": 3363,
    "議": 3364,
    "護": 3365,
    "變": 3366,
    "讓": 3367,
    "计": 3368,
    "认": 3369,
    "让": 3370,
    "议": 3371,
    "记": 3372,
    "许": 3373,
    "论": 3374,
    "设": 3375,
    "证": 3376,
    "评": 3377,
    "识": 3378,
    "词": 3379,
    "试": 3380,
    "诗": 3381,
    "话": 3382,
    "该": 3383,
    "语": 3384,
    "误": 3385,
    "说": 3386,
    "读": 3387,
    "课": 3388,
    "调": 3389,
    "谓": 3390,
    "谜": 3391,
    "谢": 3392,
    "谷": 3393,
    "豆": 3394,
    "豊": 3395,
    "豐": 3396,
    "象": 3397,
    "豹": 3398,
    "貊": 3399,
    "貝": 3400,
    "財": 3401,
    "貨": 3402,
    "貫": 3403,
    "責": 3404,
    "貴": 3405,
    "買": 3406,
    "賀": 3407,
    "資": 3408,
    "賈": 3409,
    "賢": 3410,
    "賣": 3411,
    "财": 3412,
    "贴": 3413,
    "贵": 3414,
    "贸": 3415,
    "赋": 3416,
    "赤": 3417,
    "走": 3418,
    "赵": 3419,
    "起": 3420,
    "超": 3421,
    "越": 3422,
    "趣": 3423,
    "足": 3424,
    "跋": 3425,
    "跡": 3426,
    "路": 3427,
    "践": 3428,
    "踊": 3429,
    "踏": 3430,
    "踐": 3431,
    "踵": 3432,
    "蹉": 3433,
    "蹴": 3434,
    "身": 3435,
    "車": 3436,
    "軌": 3437,
    "軍": 3438,
    "軟": 3439,
    "転": 3440,
    "軻": 3441,
    "輔": 3442,
    "輕": 3443,
    "輝": 3444,
    "輩": 3445,
    "輪": 3446,
    "輸": 3447,
    "轉": 3448,
    "车": 3449,
    "轻": 3450,
    "载": 3451,
    "轿": 3452,
    "辆": 3453,
    "辑": 3454,
    "输": 3455,
    "辛": 3456,
    "辜": 3457,
    "辞": 3458,
    "辟": 3459,
    "辨": 3460,
    "辭": 3461,
    "辯": 3462,
    "辰": 3463,
    "辱": 3464,
    "農": 3465,
    "辺": 3466,
    "达": 3467,
    "过": 3468,
    "运": 3469,
    "近": 3470,
    "还": 3471,
    "这": 3472,
    "进": 3473,
    "远": 3474,
    "连": 3475,
    "迦": 3476,
    "迴": 3477,
    "退": 3478,
    "送": 3479,
    "逆": 3480,
    "选": 3481,
    "逐": 3482,
    "途": 3483,
    "這": 3484,
    "通": 3485,
    "逝": 3486,
    "速": 3487,
    "造": 3488,
    "連": 3489,
    "週": 3490,
    "進": 3491,
    "逸": 3492,
    "遊": 3493,
    "運": 3494,
    "遍": 3495,
    "過": 3496,
    "道": 3497,
    "達": 3498,
    "違": 3499,
    "遠": 3500,
    "遣": 3501,
    "適": 3502,
    "遵": 3503,
    "遷": 3504,
    "選": 3505,
    "遺": 3506,
    "邇": 3507,
    "邊": 3508,
    "邏": 3509,
    "那": 3510,
    "邦": 3511,
    "邪": 3512,
    "郁": 3513,
    "郎": 3514,
    "郡": 3515,
    "部": 3516,
    "郷": 3517,
    "都": 3518,
    "鄉": 3519,
    "鄭": 3520,
    "配": 3521,
    "醎": 3522,
    "醒": 3523,
    "醣": 3524,
    "醬": 3525,
    "醯": 3526,
    "釁": 3527,
    "采": 3528,
    "釋": 3529,
    "里": 3530,
    "重": 3531,
    "野": 3532,
    "量": 3533,
    "金": 3534,
    "釜": 3535,
    "鈥": 3536,
    "鈴": 3537,
    "鉄": 3538,
    "銀": 3539,
    "銅": 3540,
    "銘": 3541,
    "銷": 3542,
    "錢": 3543,
    "錦": 3544,
    "錬": 3545,
    "鍛": 3546,
    "鎮": 3547,
    "鏡": 3548,
    "鐵": 3549,
    "钟": 3550,
    "钱": 3551,
    "销": 3552,
    "错": 3553,
    "長": 3554,
    "长": 3555,
    "門": 3556,
    "閉": 3557,
    "開": 3558,
    "閒": 3559,
    "間": 3560,
    "閗": 3561,
    "関": 3562,
    "閣": 3563,
    "閦": 3564,
    "閭": 3565,
    "閻": 3566,
    "闍": 3567,
    "闖": 3568,
    "關": 3569,
    "闥": 3570,
    "门": 3571,
    "闭": 3572,
    "问": 3573,
    "间": 3574,
    "阅": 3575,
    "阪": 3576,
    "阼": 3577,
    "阿": 3578,
    "陀": 3579,
    "附": 3580,
    "际": 3581,
    "陇": 3582,
    "陈": 3583,
    "降": 3584,
    "限": 3585,
    "陕": 3586,
    "院": 3587,
    "陣": 3588,
    "除": 3589,
    "陰": 3590,
    "陳": 3591,
    "陵": 3592,
    "陶": 3593,
    "陸": 3594,
    "隆": 3595,
    "隋": 3596,
    "隍": 3597,
    "階": 3598,
    "隐": 3599,
    "際": 3600,
    "隨": 3601,
    "隶": 3602,
    "雄": 3603,
    "雅": 3604,
    "集": 3605,
    "雜": 3606,
    "離": 3607,
    "難": 3608,
    "雨": 3609,
    "雲": 3610,
    "需": 3611,
    "震": 3612,
    "霊": 3613,
    "露": 3614,
    "青": 3615,
    "靖": 3616,
    "静": 3617,
    "非": 3618,
    "面": 3619,
    "革": 3620,
    "韓": 3621,
    "韩": 3622,
    "音": 3623,
    "響": 3624,
    "頁": 3625,
    "頂": 3626,
    "須": 3627,
    "頊": 3628,
    "頌": 3629,
    "領": 3630,
    "頞": 3631,
    "頬": 3632,
    "頭": 3633,
    "頻": 3634,
    "頼": 3635,
    "顆": 3636,
    "題": 3637,
    "顏": 3638,
    "顯": 3639,
    "页": 3640,
    "项": 3641,
    "须": 3642,
    "频": 3643,
    "颗": 3644,
    "题": 3645,
    "额": 3646,
    "風": 3647,
    "风": 3648,
    "食": 3649,
    "飯": 3650,
    "養": 3651,
    "餓": 3652,
    "餘": 3653,
    "館": 3654,
    "餹": 3655,
    "饭": 3656,
    "饼": 3657,
    "馆": 3658,
    "首": 3659,
    "香": 3660,
    "馬": 3661,
    "駄": 3662,
    "駅": 3663,
    "駒": 3664,
    "駕": 3665,
    "駿": 3666,
    "験": 3667,
    "驅": 3668,
    "驗": 3669,
    "马": 3670,
    "驶": 3671,
    "骨": 3672,
    "體": 3673,
    "高": 3674,
    "鬘": 3675,
    "鬱": 3676,
    "鬼": 3677,
    "魂": 3678,
    "魏": 3679,
    "魔": 3680,
    "鮮": 3681,
    "鯉": 3682,
    "鱼": 3683,
    "鳥": 3684,
    "鳩": 3685,
    "鳴": 3686,
    "鴻": 3687,
    "鷲": 3688,
    "鷽": 3689,
    "鸢": 3690,
    "鹿": 3691,
    "麟": 3692,
    "麼": 3693,
    "黃": 3694,
    "黄": 3695,
    "黑": 3696,
    "黒": 3697,
    "默": 3698,
    "黙": 3699,
    "黨": 3700,
    "鼻": 3701,
    "齋": 3702,
    "齐": 3703,
    "龍": 3704,
    "龙": 3705,
    "龵": 3706,
    "ꦏ": 3707,
    "ꦒ": 3708,
    "ꦛ": 3709,
    "ꦸ": 3710,
    "ꦼ": 3711,
    "꧀": 3712,
    "가": 3713,
    "각": 3714,
    "간": 3715,
    "감": 3716,
    "갓": 3717,
    "강": 3718,
    "같": 3719,
    "거": 3720,
    "건": 3721,
    "검": 3722,
    "게": 3723,
    "경": 3724,
    "계": 3725,
    "고": 3726,
    "곰": 3727,
    "공": 3728,
    "과": 3729,
    "관": 3730,
    "교": 3731,
    "구": 3732,
    "국": 3733,
    "군": 3734,
    "규": 3735,
    "그": 3736,
    "글": 3737,
    "금": 3738,
    "기": 3739,
    "김": 3740,
    "께": 3741,
    "나": 3742,
    "남": 3743,
    "낮": 3744,
    "내": 3745,
    "네": 3746,
    "년": 3747,
    "높": 3748,
    "는": 3749,
    "늘": 3750,
    "니": 3751,
    "다": 3752,
    "단": 3753,
    "달": 3754,
    "담": 3755,
    "답": 3756,
    "대": 3757,
    "덕": 3758,
    "도": 3759,
    "동": 3760,
    "되": 3761,
    "두": 3762,
    "드": 3763,
    "듣": 3764,
    "들": 3765,
    "등": 3766,
    "때": 3767,
    "라": 3768,
    "락": 3769,
    "람": 3770,
    "래": 3771,
    "량": 3772,
    "레": 3773,
    "렌": 3774,
    "력": 3775,
    "령": 3776,
    "로": 3777,
    "록": 3778,
    "료": 3779,
    "루": 3780,
    "륭": 3781,
    "를": 3782,
    "릉": 3783,
    "리": 3784,
    "린": 3785,
    "마": 3786,
    "막": 3787,
    "만": 3788,
    "망": 3789,
    "맞": 3790,
    "매": 3791,
    "메": 3792,
    "며": 3793,
    "면": 3794,
    "멸": 3795,
    "명": 3796,
    "모": 3797,
    "목": 3798,
    "몬": 3799,
    "무": 3800,
    "문": 3801,
    "물": 3802,
    "미": 3803,
    "민": 3804,
    "및": 3805,
    "바": 3806,
    "반": 3807,
    "발": 3808,
    "배": 3809,
    "백": 3810,
    "벅": 3811,
    "범": 3812,
    "법": 3813,
    "변": 3814,
    "보": 3815,
    "볼": 3816,
    "부": 3817,
    "북": 3818,
    "분": 3819,
    "비": 3820,
    "사": 3821,
    "산": 3822,
    "살": 3823,
    "삽": 3824,
    "상": 3825,
    "새": 3826,
    "생": 3827,
    "서": 3828,
    "섭": 3829,
    "성": 3830,
    "세": 3831,
    "션": 3832,
    "소": 3833,
    "속": 3834,
    "손": 3835,
    "솟": 3836,
    "송": 3837,
    "수": 3838,
    "숙": 3839,
    "순": 3840,
    "술": 3841,
    "스": 3842,
    "시": 3843,
    "식": 3844,
    "신": 3845,
    "십": 3846,
    "아": 3847,
    "악": 3848,
    "안": 3849,
    "않": 3850,
    "았": 3851,
    "앞": 3852,
    "애": 3853,
    "야": 3854,
    "약": 3855,
    "양": 3856,
    "어": 3857,
    "엄": 3858,
    "없": 3859,
    "었": 3860,
    "에": 3861,
    "여": 3862,
    "역": 3863,
    "연": 3864,
    "염": 3865,
    "엽": 3866,
    "였": 3867,
    "예": 3868,
    "온": 3869,
    "올": 3870,
    "와": 3871,
    "완": 3872,
    "왕": 3873,
    "외": 3874,
    "요": 3875,
    "우": 3876,
    "울": 3877,
    "원": 3878,
    "월": 3879,
    "위": 3880,
    "유": 3881,
    "육": 3882,
    "율": 3883,
    "융": 3884,
    "으": 3885,
    "은": 3886,
    "을": 3887,
    "음": 3888,
    "의": 3889,
    "이": 3890,
    "인": 3891,
    "일": 3892,
    "임": 3893,
    "입": 3894,
    "있": 3895,
    "자": 3896,
    "잘": 3897,
    "장": 3898,
    "재": 3899,
    "저": 3900,
    "적": 3901,
    "전": 3902,
    "절": 3903,
    "점": 3904,
    "젓": 3905,
    "정": 3906,
    "젖": 3907,
    "제": 3908,
    "져": 3909,
    "조": 3910,
    "족": 3911,
    "존": 3912,
    "좋": 3913,
    "주": 3914,
    "준": 3915,
    "중": 3916,
    "즈": 3917,
    "증": 3918,
    "지": 3919,
    "직": 3920,
    "진": 3921,
    "질": 3922,
    "째": 3923,
    "책": 3924,
    "처": 3925,
    "첨": 3926,
    "체": 3927,
    "초": 3928,
    "총": 3929,
    "최": 3930,
    "추": 3931,
    "출": 3932,
    "측": 3933,
    "치": 3934,
    "카": 3935,
    "코": 3936,
    "크": 3937,
    "클": 3938,
    "킨": 3939,
    "타": 3940,
    "탁": 3941,
    "탄": 3942,
    "탕": 3943,
    "태": 3944,
    "통": 3945,
    "특": 3946,
    "파": 3947,
    "판": 3948,
    "팝": 3949,
    "펴": 3950,
    "평": 3951,
    "피": 3952,
    "하": 3953,
    "학": 3954,
    "한": 3955,
    "함": 3956,
    "해": 3957,
    "행": 3958,
    "향": 3959,
    "현": 3960,
    "형": 3961,
    "화": 3962,
    "환": 3963,
    "황": 3964,
    "효": 3965,
    "후": 3966,
    "훈": 3967,
    "힌": 3968,
    "ﬀ": 3969,
    "ﬁ": 3970,
    "ﬂ": 3971,
    "ﬃ": 3972,
    "ﷺ": 3973,
    "️": 3974,
    "︠": 3975,
    "︡": 3976,
    "﹣": 3977,
    "！": 3978,
    "＇": 3979,
    "（": 3980,
    "）": 3981,
    "＋": 3982,
    "，": 3983,
    "－": 3984,
    "／": 3985,
    "１": 3986,
    "３": 3987,
    "４": 3988,
    "６": 3989,
    "７": 3990,
    "８": 3991,
    "：": 3992,
    "；": 3993,
    "＝": 3994,
    "？": 3995,
    "Ｂ": 3996,
    "Ｃ": 3997,
    "［": 3998,
    "］": 3999,
    "～": 4000,
    "ｮ": 4001,
    "￼": 4002,
    "�": 4003,
    "𐌰": 4004,
    "𐌲": 4005,
    "𓀐": 4006,
    "𓂝": 4007,
    "𓄈": 4008,
    "𓅓": 4009,
    "𝄐": 4010,
    "𝐄": 4011,
    "𝐑": 4012,
    "𝐖": 4013,
    "𝐚": 4014,
    "𝐜": 4015,
    "𝐡": 4016,
    "𝐢": 4017,
    "𝐦": 4018,
    "𝐨": 4019,
    "𝐫": 4020,
    "𝐭": 4021,
    "𝐰": 4022,
    "𝐱": 4023,
    "𝑓": 4024,
    "𝑥": 4025,
    "𝟏": 4026,
    "𝟷": 4027,
    "𝟹": 4028,
    "𝟽": 4029,
    "𝟿": 4030,
    "🇦": 4031,
    "🇧": 4032,
    "🇨": 4033,
    "🇬": 4034,
    "🇰": 4035,
    "🇳": 4036,
    "🇵": 4037,
    "🇸": 4038,
    "🇺": 4039,
    "🇿": 4040,
    "🌈": 4041,
    "🌎": 4042,
    "🌱": 4043,
    "🌳": 4044,
    "🌵": 4045,
    "🍓": 4046,
    "🎃": 4047,
    "🎓": 4048,
    "🎛": 4049,
    "🎧": 4050,
    "🎮": 4051,
    "🎶": 4052,
    "🏃": 4053,
    "🏦": 4054,
    "🏫": 4055,
    "🏳": 4056,
    "🏻": 4057,
    "🏼": 4058,
    "🏽": 4059,
    "🏾": 4060,
    "🐘": 4061,
    "🐛": 4062,
    "🐡": 4063,
    "🐥": 4064,
    "👁": 4065,
    "👂": 4066,
    "👃": 4067,
    "👄": 4068,
    "👇": 4069,
    "👉": 4070,
    "👋": 4071,
    "👌": 4072,
    "👍": 4073,
    "👏": 4074,
    "👑": 4075,
    "👨": 4076,
    "👩": 4077,
    "👽": 4078,
    "💃": 4079,
    "💐": 4080,
    "💚": 4081,
    "💡": 4082,
    "💬": 4083,
    "💯": 4084,
    "💰": 4085,
    "💵": 4086,
    "💸": 4087,
    "💼": 4088,
    "📃": 4089,
    "📉": 4090,
    "📊": 4091,
    "📌": 4092,
    "📍": 4093,
    "📑": 4094,
    "📕": 4095,
    "📖": 4096,
    "📚": 4097,
    "📜": 4098,
    "📝": 4099,
    "📢": 4100,
    "📩": 4101,
    "📹": 4102,
    "🔎": 4103,
    "🔗": 4104,
    "🔠": 4105,
    "🔢": 4106,
    "🔥": 4107,
    "🔬": 4108,
    "🔴": 4109,
    "🔷": 4110,
    "🔸": 4111,
    "🔽": 4112,
    "🕑": 4113,
    "🕸": 4114,
    "🖐": 4115,
    "🖨": 4116,
    "🗨": 4117,
    "🗳": 4118,
    "🗽": 4119,
    "😀": 4120,
    "😁": 4121,
    "😂": 4122,
    "😃": 4123,
    "😅": 4124,
    "😉": 4125,
    "😊": 4126,
    "😌": 4127,
    "😎": 4128,
    "😐": 4129,
    "😓": 4130,
    "😕": 4131,
    "😛": 4132,
    "😜": 4133,
    "😞": 4134,
    "😢": 4135,
    "😣": 4136,
    "😨": 4137,
    "😬": 4138,
    "😮": 4139,
    "😱": 4140,
    "😲": 4141,
    "😳": 4142,
    "😶": 4143,
    "🙁": 4144,
    "🙂": 4145,
    "🙄": 4146,
    "🙏": 4147,
    "🚒": 4148,
    "🚨": 4149,
    "🚸": 4150,
    "🤑": 4151,
    "🤔": 4152,
    "🤖": 4153,
    "🤞": 4154,
    "🤦": 4155,
    "🤨": 4156,
    "🤯": 4157,
    "🤷": 4158,
    "🧠": 4159,
    "🧡": 4160,
    "🪓": 4161,
    "𨽍": 4162,
    " t": 4163,
    " a": 4164,
    "he": 4165,
    "in": 4166,
    "re": 4167,
    " the": 4168,
    "on": 4169,
    "er": 4170,
    " o": 4171,
    "at": 4172,
    " s": 4173,
    "en": 4174,
    " c": 4175,
    " w": 4176,
    "es": 4177,
    "is": 4178,
    "nd": 4179,
    "it": 4180,
    "or": 4181,
    " p": 4182,
    "al": 4183,
    "ed": 4184,
    " b": 4185,
    "an": 4186,
    " of": 4187,
    " f": 4188,
    "ing": 4189,
    " in": 4190,
    "ar": 4191,
    "ou": 4192,
    " m": 4193,
    " and": 4194,
    " to": 4195,
    "ic": 4196,
    " d": 4197,
    "ion": 4198,
    "le": 4199,
    "ro": 4200,
    "as": 4201,
    " h": 4202,
    " th": 4203,
    "ent": 4204,
    "ct": 4205,
    " e": 4206,
    "il": 4207,
    " re": 4208,
    "om": 4209,
    "ve": 4210,
    " l": 4211,
    "st": 4212,
    " n": 4213,
    "ly": 4214,
    " be": 4215,
    " is": 4216,
    " T": 4217,
    "se": 4218,
    "ol": 4219,
    " g": 4220,
    "ation": 4221,
    "im": 4222,
    "id": 4223,
    "et": 4224,
    "ut": 4225,
    "ur": 4226,
    "ce": 4227,
    "ot": 4228,
    "ra": 4229,
    "ow": 4230,
    "ch": 4231,
    " A": 4232,
    " for": 4233,
    "ig": 4234,
    " S": 4235,
    " that": 4236,
    " u": 4237,
    " on": 4238,
    " st": 4239,
    "ver": 4240,
    " C": 4241,
    " I": 4242,
    "ir": 4243,
    " y": 4244,
    "ul": 4245,
    "ay": 4246,
    "am": 4247,
    " as": 4248,
    "ith": 4249,
    "el": 4250,
    "ad": 4251,
    "her": 4252,
    " pro": 4253,
    " are": 4254,
    " con": 4255,
    " an": 4256,
    " with": 4257,
    " wh": 4258,
    "if": 4259,
    " it": 4260,
    " or": 4261,
    " al": 4262,
    " you": 4263,
    "ter": 4264,
    "od": 4265,
    " M": 4266,
    " (": 4267,
    " The": 4268,
    "ment": 4269,
    "ge": 4270,
    " P": 4271,
    " 1": 4272,
    "th": 4273,
    "ate": 4274,
    "op": 4275,
    "ist": 4276,
    "ers": 4277,
    " de": 4278,
    "ies": 4279,
    "ab": 4280,
    "ill": 4281,
    " he": 4282,
    "ess": 4283,
    " B": 4284,
    " ex": 4285,
    "us": 4286,
    " we": 4287,
    "ect": 4288,
    "ore": 4289,
    " su": 4290,
    " com": 4291,
    "ity": 4292,
    "est": 4293,
    "ive": 4294,
    "res": 4295,
    " ha": 4296,
    "ac": 4297,
    "rom": 4298,
    "ld": 4299,
    " H": 4300,
    "os": 4301,
    "um": 4302,
    " v": 4303,
    "ke": 4304,
    " by": 4305,
    "em": 4306,
    "ant": 4307,
    "iv": 4308,
    "qu": 4309,
    "ain": 4310,
    " at": 4311,
    "nt": 4312,
    " W": 4313,
    "pp": 4314,
    " was": 4315,
    " D": 4316,
    "igh": 4317,
    "ud": 4318,
    " E": 4319,
    " from": 4320,
    " can": 4321,
    "and": 4322,
    "oc": 4323,
    " ch": 4324,
    " r": 4325,
    " R": 4326,
    "ort": 4327,
    " ne": 4328,
    " F": 4329,
    " se": 4330,
    "ial": 4331,
    " 2": 4332,
    "ure": 4333,
    " not": 4334,
    "un": 4335,
    "art": 4336,
    " N": 4337,
    " le": 4338,
    "ical": 4339,
    " G": 4340,
    " have": 4341,
    "ri": 4342,
    " L": 4343,
    " sh": 4344,
    "og": 4345,
    " en": 4346,
    " this": 4347,
    " sp": 4348,
    "00": 4349,
    "pt": 4350,
    "ight": 4351,
    "rou": 4352,
    " ab": 4353,
    "red": 4354,
    "ich": 4355,
    "all": 4356,
    " wor": 4357,
    "ther": 4358,
    "ould": 4359,
    "The": 4360,
    "gh": 4361,
    "ions": 4362,
    "our": 4363,
    "ome": 4364,
    "ost": 4365,
    "du": 4366,
    "ated": 4367,
    " im": 4368,
    " us": 4369,
    "ine": 4370,
    "per": 4371,
    "out": 4372,
    "ard": 4373,
    " pl": 4374,
    "ag": 4375,
    " their": 4376,
    "ide": 4377,
    "ell": 4378,
    "ff": 4379,
    "act": 4380,
    "ans": 4381,
    " O": 4382,
    " int": 4383,
    "ast": 4384,
    "pl": 4385,
    "ear": 4386,
    "age": 4387,
    "ust": 4388,
    " J": 4389,
    " which": 4390,
    "ak": 4391,
    " k": 4392,
    "ous": 4393,
    " whe": 4394,
    "ec": 4395,
    " they": 4396,
    " U": 4397,
    "iz": 4398,
    " your": 4399,
    " all": 4400,
    "ood": 4401,
    " cont": 4402,
    " In": 4403,
    " ad": 4404,
    " inc": 4405,
    "ult": 4406,
    "ib": 4407,
    " will": 4408,
    "cc": 4409,
    "end": 4410,
    "ru": 4411,
    "ap": 4412,
    " dis": 4413,
    " more": 4414,
    "ia": 4415,
    "ong": 4416,
    " comp": 4417,
    "ip": 4418,
    "ations": 4419,
    "ew": 4420,
    " res": 4421,
    " has": 4422,
    "vel": 4423,
    "ere": 4424,
    "so": 4425,
    "orm": 4426,
    "ary": 4427,
    " do": 4428,
    "ater": 4429,
    " Th": 4430,
    " other": 4431,
    "ild": 4432,
    " cl": 4433,
    " were": 4434,
    "are": 4435,
    "able": 4436,
    " man": 4437,
    "ence": 4438,
    " but": 4439,
    "ual": 4440,
    "ks": 4441,
    "ry": 4442,
    " “": 4443,
    " per": 4444,
    "ind": 4445,
    "ance": 4446,
    " one": 4447,
    "ep": 4448,
    "ach": 4449,
    " also": 4450,
    " te": 4451,
    " imp": 4452,
    " me": 4453,
    "ents": 4454,
    "'s": 4455,
    "ose": 4456,
    "reat": 4457,
    " 19": 4458,
    "ign": 4459,
    "ake": 4460,
    "ass": 4461,
    "ress": 4462,
    "ase": 4463,
    "ition": 4464,
    " j": 4465,
    "au": 4466,
    "av": 4467,
    " so": 4468,
    "ction": 4469,
    "ice": 4470,
    "ber": 4471,
    " out": 4472,
    " un": 4473,
    "very": 4474,
    " part": 4475,
    " app": 4476,
    " ar": 4477,
    "ime": 4478,
    "ish": 4479,
    "ord": 4480,
    " about": 4481,
    "one": 4482,
    " ev": 4483,
    "ens": 4484,
    "ount": 4485,
    "ory": 4486,
    "ok": 4487,
    "ace": 4488,
    "ame": 4489,
    " who": 4490,
    "ire": 4491,
    " stud": 4492,
    " St": 4493,
    ").": 4494,
    " his": 4495,
    "ack": 4496,
    " inf": 4497,
    "ub": 4498,
    " pe": 4499,
    " K": 4500,
    " sy": 4501,
    "ors": 4502,
    " sc": 4503,
    " them": 4504,
    " comm": 4505,
    "ue": 4506,
    "ite": 4507,
    "ang": 4508,
    "ike": 4509,
    "ree": 4510,
    "now": 4511,
    "ces": 4512,
    "ound": 4513,
    "low": 4514,
    " \"": 4515,
    " It": 4516,
    " up": 4517,
    " bec": 4518,
    "olog": 4519,
    " pre": 4520,
    "ile": 4521,
    " than": 4522,
    " may": 4523,
    "ric": 4524,
    " qu": 4525,
    "ie": 4526,
    " Ch": 4527,
    " some": 4528,
    "iff": 4529,
    "ian": 4530,
    " year": 4531,
    " rec": 4532,
    "ople": 4533,
    " been": 4534,
    "ates": 4535,
    "ays": 4536,
    "ail": 4537,
    " there": 4538,
    "nder": 4539,
    " when": 4540,
    "ings": 4541,
    "mer": 4542,
    " ag": 4543,
    "ough": 4544,
    " its": 4545,
    " go": 4546,
    " 20": 4547,
    " into": 4548,
    "ph": 4549,
    " time": 4550,
    " tra": 4551,
    "ren": 4552,
    "rit": 4553,
    "vers": 4554,
    " work": 4555,
    " V": 4556,
    "ons": 4557,
    "te": 4558,
    " these": 4559,
    " This": 4560,
    " over": 4561,
    "erv": 4562,
    " had": 4563,
    "rough": 4564,
    "lud": 4565,
    "ally": 4566,
    " people": 4567,
    " how": 4568,
    " diff": 4569,
    "ond": 4570,
    " tr": 4571,
    "ove": 4572,
    " cons": 4573,
    "ms": 4574,
    "tern": 4575,
    "ause": 4576,
    " 3": 4577,
    " ra": 4578,
    " col": 4579,
    " our": 4580,
    "ll": 4581,
    " use": 4582,
    " ro": 4583,
    "ific": 4584,
    " act": 4585,
    " bet": 4586,
    "we": 4587,
    "int": 4588,
    "lic": 4589,
    " most": 4590,
    "irst": 4591,
    " know": 4592,
    "lect": 4593,
    "ments": 4594,
    " under": 4595,
    " sa": 4596,
    " des": 4597,
    "ys": 4598,
    " would": 4599,
    " like": 4600,
    "ities": 4601,
    "ning": 4602,
    " bl": 4603,
    "ious": 4604,
    "ject": 4605,
    "ook": 4606,
    "alth": 4607,
    " acc": 4608,
    "row": 4609,
    "les": 4610,
    " tw": 4611,
    " Y": 4612,
    "stem": 4613,
    "velop": 4614,
    " new": 4615,
    " such": 4616,
    " rel": 4617,
    " need": 4618,
    " rep": 4619,
    "ational": 4620,
    " if": 4621,
    "ffect": 4622,
    " includ": 4623,
    "ient": 4624,
    " any": 4625,
    "ob": 4626,
    " child": 4627,
    " gen": 4628,
    "ative": 4629,
    "hed": 4630,
    " hel": 4631,
    "ple": 4632,
    "ular": 4633,
    "cess": 4634,
    " only": 4635,
    " prov": 4636,
    " what": 4637,
    " pr": 4638,
    " no": 4639,
    " used": 4640,
    "ced": 4641,
    " help": 4642,
    "),": 4643,
    "ating": 4644,
    "yp": 4645,
    " ph": 4646,
    " produ": 4647,
    "ov": 4648,
    " Un": 4649,
    " many": 4650,
    " first": 4651,
    " through": 4652,
    "ool": 4653,
    " off": 4654,
    " ind": 4655,
    " am": 4656,
    "iet": 4657,
    " develop": 4658,
    "oss": 4659,
    "fter": 4660,
    "uc": 4661,
    " spec": 4662,
    "erm": 4663,
    " fe": 4664,
    "ise": 4665,
    " reg": 4666,
    " po": 4667,
    "ark": 4668,
    "round": 4669,
    "ath": 4670,
    " em": 4671,
    "ics": 4672,
    " ac": 4673,
    "rib": 4674,
    "uring": 4675,
    "ts": 4676,
    " two": 4677,
    "ne": 4678,
    " exp": 4679,
    " system": 4680,
    "ful": 4681,
    "ink": 4682,
    "hen": 4683,
    "iss": 4684,
    "old": 4685,
    "ied": 4686,
    " ob": 4687,
    "eth": 4688,
    "ility": 4689,
    " differe": 4690,
    "oth": 4691,
    " dec": 4692,
    " att": 4693,
    " ass": 4694,
    "ible": 4695,
    "ased": 4696,
    " sur": 4697,
    "als": 4698,
    "rop": 4699,
    " add": 4700,
    "ert": 4701,
    " –": 4702,
    "ten": 4703,
    " 201": 4704,
    " -": 4705,
    "ange": 4706,
    "ife": 4707,
    " He": 4708,
    "ng": 4709,
    "arch": 4710,
    " should": 4711,
    "aw": 4712,
    "In": 4713,
    " supp": 4714,
    "fore": 4715,
    "ower": 4716,
    " 200": 4717,
    " well": 4718,
    "ures": 4719,
    "ween": 4720,
    "ram": 4721,
    " fl": 4722,
    " years": 4723,
    " rem": 4724,
    "ble": 4725,
    "ract": 4726,
    " inv": 4727,
    "sel": 4728,
    "ade": 4729,
    "own": 4730,
    " co": 4731,
    " water": 4732,
    " 4": 4733,
    " sub": 4734,
    "its": 4735,
    "ution": 4736,
    "gan": 4737,
    " could": 4738,
    " between": 4739,
    " sm": 4740,
    " where": 4741,
    "cy": 4742,
    "hes": 4743,
    " high": 4744,
    " health": 4745,
    " pres": 4746,
    "ily": 4747,
    "wn": 4748,
    "ick": 4749,
    " trans": 4750,
    " 5": 4751,
    "uch": 4752,
    " make": 4753,
    " ear": 4754,
    "ident": 4755,
    "ever": 4756,
    "land": 4757,
    " get": 4758,
    " As": 4759,
    " bu": 4760,
    "xt": 4761,
    " pers": 4762,
    "form": 4763,
    "ants": 4764,
    "ited": 4765,
    " her": 4766,
    " rese": 4767,
    " inter": 4768,
    " import": 4769,
    "ology": 4770,
    "ting": 4771,
    "chn": 4772,
    "ivers": 4773,
    " pol": 4774,
    " num": 4775,
    "ural": 4776,
    "ience": 4777,
    " mod": 4778,
    " form": 4779,
    " disc": 4780,
    " inst": 4781,
    "meric": 4782,
    "chool": 4783,
    " exam": 4784,
    "ron": 4785,
    "ines": 4786,
    "ists": 4787,
    " med": 4788,
    " found": 4789,
    " lear": 4790,
    "ef": 4791,
    "ata": 4792,
    "ism": 4793,
    "ict": 4794,
    "ually": 4795,
    "urn": 4796,
    "ins": 4797,
    " lar": 4798,
    "oy": 4799,
    " very": 4800,
    " long": 4801,
    "hat": 4802,
    " cent": 4803,
    " after": 4804,
    " then": 4805,
    " inform": 4806,
    " even": 4807,
    " because": 4808,
    "gy": 4809,
    " different": 4810,
    " world": 4811,
    " incre": 4812,
    " sim": 4813,
    " exper": 4814,
    " just": 4815,
    " effect": 4816,
    "ft": 4817,
    " hum": 4818,
    "other": 4819,
    "cept": 4820,
    " count": 4821,
    " way": 4822,
    "ature": 4823,
    " det": 4824,
    "ness": 4825,
    " ed": 4826,
    " 18": 4827,
    " car": 4828,
    "ically": 4829,
    "get": 4830,
    " typ": 4831,
    " see": 4832,
    "aking": 4833,
    " ref": 4834,
    " fol": 4835,
    " Americ": 4836,
    "vent": 4837,
    " those": 4838,
    " pub": 4839,
    " resp": 4840,
    "ives": 4841,
    " ke": 4842,
    " var": 4843,
    "ck": 4844,
    " call": 4845,
    "cer": 4846,
    " gener": 4847,
    " sign": 4848,
    "ork": 4849,
    " soc": 4850,
    " sec": 4851,
    "con": 4852,
    "iew": 4853,
    " prog": 4854,
    "tle": 4855,
    " every": 4856,
    "omm": 4857,
    " children": 4858,
    " ext": 4859,
    " loc": 4860,
    "ues": 4861,
    " said": 4862,
    "ps": 4863,
    "arm": 4864,
    ".”": 4865,
    " being": 4866,
    "ds": 4867,
    "ases": 4868,
    " process": 4869,
    " fact": 4870,
    " each": 4871,
    "ros": 4872,
    "led": 4873,
    " set": 4874,
    "ruct": 4875,
    " partic": 4876,
    " pat": 4877,
    " result": 4878,
    "vern": 4879,
    " ca": 4880,
    " life": 4881,
    "ved": 4882,
    " important": 4883,
    " mon": 4884,
    "iron": 4885,
    " gra": 4886,
    " fam": 4887,
    "Th": 4888,
    "ages": 4889,
    " dist": 4890,
    " Al": 4891,
    " requ": 4892,
    " much": 4893,
    " information": 4894,
    " techn": 4895,
    " my": 4896,
    "ather": 4897,
    " cre": 4898,
    " she": 4899,
    "ody": 4900,
    " def": 4901,
    "cent": 4902,
    " commun": 4903,
    " We": 4904,
    " during": 4905,
    " own": 4906,
    " art": 4907,
    " follow": 4908,
    "ward": 4909,
    " Pro": 4910,
    " dep": 4911,
    " ent": 4912,
    "imes": 4913,
    " read": 4914,
    "ized": 4915,
    " They": 4916,
    " food": 4917,
    " same": 4918,
    "io": 4919,
    " aut": 4920,
    "..": 4921,
    "ices": 4922,
    " level": 4923,
    " lead": 4924,
    " students": 4925,
    "gg": 4926,
    " right": 4927,
    " made": 4928,
    "||": 4929,
    "ection": 4930,
    "any": 4931,
    " does": 4932,
    " ins": 4933,
    "hip": 4934,
    " Re": 4935,
    " data": 4936,
    " end": 4937,
    " 6": 4938,
    " sk": 4939,
    " cur": 4940,
    "ize": 4941,
    " study": 4942,
    "ted": 4943,
    " find": 4944,
    " grow": 4945,
    " person": 4946,
    " str": 4947,
    "und": 4948,
    " min": 4949,
    " If": 4950,
    " proble": 4951,
    " both": 4952,
    " pop": 4953,
    " back": 4954,
    " good": 4955,
    "the": 4956,
    " grou": 4957,
    " For": 4958,
    " Ar": 4959,
    " che": 4960,
    " av": 4961,
    " An": 4962,
    " before": 4963,
    "ars": 4964,
    "ale": 4965,
    "inal": 4966,
    "20": 4967,
    " show": 4968,
    " expl": 4969,
    "viron": 4970,
    " Con": 4971,
    " small": 4972,
    "iversity": 4973,
    "ince": 4974,
    " using": 4975,
    " hist": 4976,
    " school": 4977,
    " again": 4978,
    " comple": 4979,
    " di": 4980,
    "ty": 4981,
    "000": 4982,
    "ially": 4983,
    " prot": 4984,
    " bo": 4985,
    "ality": 4986,
    ".,": 4987,
    "omen": 4988,
    "stand": 4989,
    " main": 4990,
    "iel": 4991,
    "ined": 4992,
    "imate": 4993,
    "rol": 4994,
    "der": 4995,
    " cor": 4996,
    "19": 4997,
    "nce": 4998,
    "read": 4999,
    " gl": 5000,
    " test": 5001,
    "ax": 5002,
    " How": 5003,
    " treat": 5004,
    "ivid": 5005,
    " often": 5006,
    " while": 5007,
    " state": 5008,
    "ished": 5009,
    " val": 5010,
    " poss": 5011,
    " New": 5012,
    " sol": 5013,
    " less": 5014,
    "irect": 5015,
    " lit": 5016,
    "ix": 5017,
    "ute": 5018,
    "oh": 5019,
    " ris": 5020,
    " day": 5021,
    "ral": 5022,
    " now": 5023,
    " Ind": 5024,
    "ury": 5025,
    "ien": 5026,
    "ran": 5027,
    "ock": 5028,
    " number": 5029,
    "ergy": 5030,
    " him": 5031,
    " dise": 5032,
    " serv": 5033,
    " take": 5034,
    "ulation": 5035,
    " occ": 5036,
    " Sp": 5037,
    " provid": 5038,
    " power": 5039,
    "akes": 5040,
    " human": 5041,
    " cell": 5042,
    " vis": 5043,
    " research": 5044,
    "ier": 5045,
    "ex": 5046,
    "iety": 5047,
    "ered": 5048,
    " fun": 5049,
    " char": 5050,
    "vironment": 5051,
    " mem": 5052,
    " organ": 5053,
    " support": 5054,
    "dition": 5055,
    " three": 5056,
    " activ": 5057,
    "iving": 5058,
    " 10": 5059,
    " est": 5060,
    "up": 5061,
    " design": 5062,
    " must": 5063,
    " down": 5064,
    "ters": 5065,
    "ven": 5066,
    " body": 5067,
    "iqu": 5068,
    "air": 5069,
    "ves": 5070,
    " around": 5071,
    "uss": 5072,
    "cl": 5073,
    " elect": 5074,
    " class": 5075,
    "ital": 5076,
    "hers": 5077,
    " Sc": 5078,
    " look": 5079,
    " govern": 5080,
    " hand": 5081,
    " land": 5082,
    " redu": 5083,
    "aj": 5084,
    " point": 5085,
    " did": 5086,
    " start": 5087,
    " common": 5088,
    " bel": 5089,
    "ger": 5090,
    " great": 5091,
    " 7": 5092,
    "day": 5093,
    " ser": 5094,
    " conf": 5095,
    " But": 5096,
    "rent": 5097,
    "ouse": 5098,
    " plan": 5099,
    "ving": 5100,
    "ah": 5101,
    "ains": 5102,
    " contin": 5103,
    "ave": 5104,
    "self": 5105,
    " large": 5106,
    " example": 5107,
    " ret": 5108,
    " report": 5109,
    "This": 5110,
    " Is": 5111,
    "ross": 5112,
    " cle": 5113,
    " including": 5114,
    " cour": 5115,
    "itions": 5116,
    "gen": 5117,
    "ared": 5118,
    ",”": 5119,
    " op": 5120,
    " though": 5121,
    "com": 5122,
    " const": 5123,
    "ium": 5124,
    "acter": 5125,
    "ring": 5126,
    " 8": 5127,
    " allow": 5128,
    "ee": 5129,
    " called": 5130,
    "ner": 5131,
    " public": 5132,
    "outh": 5133,
    " care": 5134,
    "ull": 5135,
    "ional": 5136,
    "way": 5137,
    "ash": 5138,
    " met": 5139,
    " build": 5140,
    "eg": 5141,
    " educ": 5142,
    " som": 5143,
    "rain": 5144,
    "orn": 5145,
    " There": 5146,
    " still": 5147,
    " understand": 5148,
    " writ": 5149,
    " adv": 5150,
    " equ": 5151,
    " known": 5152,
    "iver": 5153,
    "els": 5154,
    "iod": 5155,
    " appro": 5156,
    " And": 5157,
    "iven": 5158,
    "esp": 5159,
    "aterial": 5160,
    " pract": 5161,
    "osed": 5162
  }
}